{
  "version": "1.0",
  "truncation": null,
  "padding": null,
  "added_tokens": [
    {
      "id": 0,
      "content": "<pad>",
      "single_word": false,
      "lstrip": false,
      "rstrip": false,
      "normalized": false,
      "special": true
    }
  ],
  "normalizer": null,
  "pre_tokenizer": {
    "type": "ByteLevel",
    "add_prefix_space": false,
    "trim_offsets": true,
    "use_regex": true
  },
  "post_processor": null,
  "decoder": {
    "type": "ByteLevel",
    "add_prefix_space": true,
    "trim_offsets": true,
    "use_regex": true
  },
  "model": {
    "type": "BPE",
    "dropout": null,
    "unk_token": null,
    "continuing_subword_prefix": null,
    "end_of_word_suffix": null,
    "fuse_unk": false,
    "byte_fallback": false,
    "ignore_merges": false,
    "vocab": {
      "<pad>": 0,
      "!": 1,
      "\"": 2,
      "#": 3,
      "$": 4,
      "%": 5,
      "&": 6,
      "'": 7,
      "(": 8,
      ")": 9,
      "*": 10,
      "+": 11,
      ",": 12,
      "-": 13,
      ".": 14,
      "/": 15,
      "0": 16,
      "1": 17,
      "2": 18,
      "3": 19,
      "4": 20,
      "5": 21,
      "6": 22,
      "7": 23,
      "8": 24,
      "9": 25,
      ":": 26,
      ";": 27,
      "<": 28,
      "=": 29,
      ">": 30,
      "?": 31,
      "@": 32,
      "A": 33,
      "B": 34,
      "C": 35,
      "D": 36,
      "E": 37,
      "F": 38,
      "G": 39,
      "H": 40,
      "I": 41,
      "J": 42,
      "K": 43,
      "L": 44,
      "M": 45,
      "N": 46,
      "O": 47,
      "P": 48,
      "Q": 49,
      "R": 50,
      "S": 51,
      "T": 52,
      "U": 53,
      "V": 54,
      "W": 55,
      "X": 56,
      "Y": 57,
      "Z": 58,
      "[": 59,
      "\\": 60,
      "]": 61,
      "^": 62,
      "_": 63,
      "`": 64,
      "a": 65,
      "b": 66,
      "c": 67,
      "d": 68,
      "e": 69,
      "f": 70,
      "g": 71,
      "h": 72,
      "i": 73,
      "j": 74,
      "k": 75,
      "l": 76,
      "m": 77,
      "n": 78,
      "o": 79,
      "p": 80,
      "q": 81,
      "r": 82,
      "s": 83,
      "t": 84,
      "u": 85,
      "v": 86,
      "w": 87,
      "x": 88,
      "y": 89,
      "z": 90,
      "{": 91,
      "|": 92,
      "}": 93,
      "~": 94,
      "¡": 95,
      "¢": 96,
      "£": 97,
      "¤": 98,
      "¥": 99,
      "¦": 100,
      "§": 101,
      "¨": 102,
      "©": 103,
      "ª": 104,
      "«": 105,
      "¬": 106,
      "®": 107,
      "¯": 108,
      "°": 109,
      "±": 110,
      "²": 111,
      "³": 112,
      "´": 113,
      "µ": 114,
      "¶": 115,
      "·": 116,
      "¸": 117,
      "¹": 118,
      "º": 119,
      "»": 120,
      "¼": 121,
      "½": 122,
      "¾": 123,
      "¿": 124,
      "Â": 125,
      "Ã": 126,
      "Ä": 127,
      "Å": 128,
      "Æ": 129,
      "Ç": 130,
      "È": 131,
      "É": 132,
      "Ê": 133,
      "Ë": 134,
      "Î": 135,
      "×": 136,
      "Ù": 137,
      "à": 138,
      "á": 139,
      "â": 140,
      "ã": 141,
      "ê": 142,
      "ï": 143,
      "ð": 144,
      "ĉ": 145,
      "Ġ": 146,
      "ġ": 147,
      "Ģ": 148,
      "ģ": 149,
      "Ĥ": 150,
      "ĥ": 151,
      "Ħ": 152,
      "ħ": 153,
      "Ĩ": 154,
      "ĩ": 155,
      "Ī": 156,
      "ī": 157,
      "Ĭ": 158,
      "ĭ": 159,
      "Į": 160,
      "į": 161,
      "İ": 162,
      "ı": 163,
      "Ĳ": 164,
      "ĳ": 165,
      "Ĵ": 166,
      "ĵ": 167,
      "Ķ": 168,
      "ķ": 169,
      "ĸ": 170,
      "Ĺ": 171,
      "ĺ": 172,
      "Ļ": 173,
      "ļ": 174,
      "Ľ": 175,
      "ľ": 176,
      "Ŀ": 177,
      "ŀ": 178,
      "Ł": 179,
      "ł": 180,
      "Ń": 181,
      "Ġt": 182,
      "he": 183,
      "Ġa": 184,
      "in": 185,
      "Ġw": 186,
      "Ġthe": 187,
      "ou": 188,
      "re": 189,
      "Ġs": 190,
      "on": 191,
      "ha": 192,
      "er": 193,
      "nd": 194,
      "Ġb": 195,
      "it": 196,
      "is": 197,
      "Ġm": 198,
      "Ġc": 199,
      "Ġo": 200,
      "Ġd": 201,
      "Ġf": 202,
      "ing": 203,
      "Ġto": 204,
      "ll": 205,
      "an": 206,
      "or": 207,
      "ed": 208,
      "Ġy": 209,
      "es": 210,
      "en": 211,
      "Ġp": 212,
      "hat": 213,
      "HI": 214,
      "Ġyou": 215,
      "ar": 216,
      "Ġg": 217,
      "CHI": 218,
      "Ġl": 219,
      "Ġand": 220,
      "Ġof": 221,
      "as": 222,
      "OT": 223,
      "MOT": 224,
      "Ġin": 225,
      "at": 226,
      "om": 227,
      "no": 228,
      "ĠI": 229,
      "Ġhe": 230,
      "Ġh": 231,
      "le": 232,
      "'s": 233,
      "Ġha": 234,
      "ay": 235,
      "ic": 236,
      "et": 237,
      "ve": 238,
      "Ġit": 239,
      "Ġth": 240,
      "Ġon": 241,
      "us": 242,
      "id": 243,
      "gh": 244,
      "Ġthat": 245,
      "Ġbe": 246,
      "al": 247,
      "Ġwas": 248,
      "ld": 249,
      "Ġe": 250,
      "Ġis": 251,
      "ut": 252,
      "ow": 253,
      "oo": 254,
      "Ġno": 255,
      "..": 256,
      "Ġ=": 257,
      "Ġwe": 258,
      "im": 259,
      "ver": 260,
      "ac": 261,
      "ke": 262,
      "ad": 263,
      "Ġn": 264,
      "'t": 265,
      "ot": 266,
      "ri": 267,
      "Ġre": 268,
      "se": 269,
      "ent": 270,
      "Ġfor": 271,
      "ir": 272,
      "ght": 273,
      "ĠS": 274,
      "am": 275,
      "ion": 276,
      "Ġst": 277,
      "ly": 278,
      "ĠM": 279,
      "st": 280,
      "Ġdo": 281,
      "Ġu": 282,
      "ĠT": 283,
      "out": 284,
      "Ġk": 285,
      "ro": 286,
      "Ġme": 287,
      "ith": 288,
      "her": 289,
      "ĠA": 290,
      "ĠC": 291,
      "Ġwith": 292,
      "all": 293,
      "ea": 294,
      "ome": 295,
      "ur": 296,
      "and": 297,
      "ch": 298,
      "Ġan": 299,
      "Ġli": 300,
      "Ġat": 301,
      "ter": 302,
      "Ġas": 303,
      "Ġwh": 304,
      "ill": 305,
      "ĠB": 306,
      "Ġse": 307,
      "ould": 308,
      "Ġgo": 309,
      "Ġnot": 310,
      "ce": 311,
      "ĠH": 312,
      "Ġhave": 313,
      "AT": 314,
      "Ġthis": 315,
      "il": 316,
      "now": 317,
      "xx": 318,
      "FAT": 319,
      "ell": 320,
      "ust": 321,
      "Ġher": 322,
      "...": 323,
      "if": 324,
      "un": 325,
      "ant": 326,
      "ct": 327,
      "Ġhis": 328,
      "Ġare": 329,
      "Ġknow": 330,
      "Ġone": 331,
      "ra": 332,
      "th": 333,
      "op": 334,
      "ĠP": 335,
      "ore": 336,
      "Ġthey": 337,
      "here": 338,
      "Ġwhat": 339,
      "Ġup": 340,
      "Ġshe": 341,
      "Ġsa": 342,
      "Ġne": 343,
      "Ġ1": 344,
      "Ġ\"": 345,
      "ook": 346,
      "Ġmy": 347,
      "um": 348,
      "Ġso": 349,
      "Ġall": 350,
      "rom": 351,
      "Ġj": 352,
      "Ġhad": 353,
      "Ġcan": 354,
      "Ġdon": 355,
      "our": 356,
      "hen": 357,
      "ge": 358,
      "pp": 359,
      "ie": 360,
      "âĢ": 361,
      "ĠW": 362,
      "eah": 363,
      "ĠD": 364,
      "Ġthere": 365,
      "Ġde": 366,
      "Ġyour": 367,
      "ĠR": 368,
      "ry": 369,
      "ain": 370,
      "ul": 371,
      "Ġr": 372,
      "ĠĠ": 373,
      "ol": 374,
      "ack": 375,
      "ood": 376,
      "Ġab": 377,
      "Ġlike": 378,
      "ĠG": 379,
      "Ġout": 380,
      "ight": 381,
      "Ġhim": 382,
      "ĠF": 383,
      "ake": 384,
      "Ġbut": 385,
      "art": 386,
      "Ġfrom": 387,
      "red": 388,
      "Ġal": 389,
      "el": 390,
      "Ġsh": 391,
      "Ġdid": 392,
      "ation": 393,
      "Ġpl": 394,
      "ab": 395,
      "Ġ2": 396,
      "han": 397,
      "very": 398,
      "one": 399,
      "ig": 400,
      "'re": 401,
      "You": 402,
      "The": 403,
      "est": 404,
      "'m": 405,
      "what": 406,
      "os": 407,
      "ĠN": 408,
      "ers": 409,
      "ess": 410,
      "em": 411,
      "right": 412,
      "ink": 413,
      "hi": 414,
      "ist": 415,
      "Ġwere": 416,
      "Ġget": 417,
      "ĠL": 418,
      "ĠE": 419,
      "ound": 420,
      "ĠJ": 421,
      "itt": 422,
      "ame": 423,
      "Ġby": 424,
      "ong": 425,
      "Ġsu": 426,
      "Ġsaid": 427,
      "ck": 428,
      "ind": 429,
      "na": 430,
      "ther": 431,
      "qu": 432,
      "Ġor": 433,
      "Ġwor": 434,
      "res": 435,
      "nt": 436,
      "Ġthem": 437,
      "ĠThe": 438,
      "ast": 439,
      "Ġabout": 440,
      "ive": 441,
      "Ġcom": 442,
      "Ġsome": 443,
      "ber": 444,
      "you": 445,
      "ard": 446,
      "oh": 447,
      "use": 448,
      "Ġsp": 449,
      "xxx": 450,
      "ep": 451,
      "ak": 452,
      "own": 453,
      "Ġv": 454,
      "Ġwant": 455,
      "Ġwho": 456,
      "ally": 457,
      "Ġcon": 458,
      "au": 459,
      "ate": 460,
      "Ġthink": 461,
      "ice": 462,
      "Ġjust": 463,
      "Ġwould": 464,
      "Ġhere": 465,
      "fe": 466,
      "yeah": 467,
      "ĠO": 468,
      "kay": 469,
      "'ll": 470,
      "ear": 471,
      "Ġsee": 472,
      "Ġany": 473,
      "od": 474,
      "ick": 475,
      "ime": 476,
      "ough": 477,
      "Ġman": 478,
      "ap": 479,
      "Ġtw": 480,
      "Ġif": 481,
      "ag": 482,
      "Ġex": 483,
      "Ġwhen": 484,
      "Ġ20": 485,
      "ittle": 486,
      "Ġ(": 487,
      "ich": 488,
      "Ġgot": 489,
      "hing": 490,
      "Ġ19": 491,
      "ort": 492,
      "Ġright": 493,
      "Ġsay": 494,
      "].": 495,
      "Ġlook": 496,
      "Ġwill": 497,
      "Ġus": 498,
      "ven": 499,
      "It": 500,
      "ine": 501,
      "Ġlittle": 502,
      ".\"": 503,
      "--": 504,
      "ĠHe": 505,
      "Ġ[": 506,
      "ide": 507,
      "IN": 508,
      "ous": 509,
      "ca": 510,
      "to": 511,
      "AR": 512,
      "ost": 513,
      "ĠK": 514,
      "Ġag": 515,
      "Ġnow": 516,
      "Ġpro": 517,
      "Ġtoo": 518,
      "int": 519,
      "ies": 520,
      "ity": 521,
      "way": 522,
      "Ġtime": 523,
      "Ġbeen": 524,
      "Ġpe": 525,
      "ite": 526,
      "Ġar": 527,
      "ĠIt": 528,
      "Ġback": 529,
      "Ġmore": 530,
      "Ġcould": 531,
      "ne": 532,
      "Ġthen": 533,
      "lf": 534,
      "Ġcl": 535,
      "Ġhas": 536,
      "Ġxxx": 537,
      "Ġgoing": 538,
      "Ġgood": 539,
      "Ġdown": 540,
      "ree": 541,
      "ace": 542,
      "uh": 543,
      "ose": 544,
      "Ġtwo": 545,
      "the": 546,
      "Ġtheir": 547,
      "Ġvery": 548,
      "are": 549,
      "MAR": 550,
      "Ġover": 551,
      "He": 552,
      "ish": 553,
      "reat": 554,
      "Ġro": 555,
      "Ġwhich": 556,
      "ove": 557,
      "And": 558,
      "Ġoff": 559,
      "ian": 560,
      "cause": 561,
      "end": 562,
      "Ġother": 563,
      "alk": 564,
      "ĠĠĠĠ": 565,
      "other": 566,
      "that": 567,
      "hy": 568,
      "Ġput": 569,
      "ure": 570,
      "Ġtr": 571,
      "Ġaf": 572,
      "ople": 573,
      "ĠU": 574,
      "Ġthing": 575,
      "ud": 576,
      "oy": 577,
      "we": 578,
      "ase": 579,
      "so": 580,
      "Ġbl": 581,
      "ft": 582,
      "augh": 583,
      "ond": 584,
      "Ġqu": 585,
      ",\"": 586,
      "ark": 587,
      "What": 588,
      "ment": 589,
      "omet": 590,
      "ty": 591,
      "ia": 592,
      "'ve": 593,
      "hed": 594,
      "orn": 595,
      "Ġle": 596,
      "Ġfe": 597,
      "my": 598,
      "Ġhow": 599,
      "pe": 600,
      "Ġpeople": 601,
      "INV": 602,
      "yes": 603,
      "onna": 604,
      "irst": 605,
      "ought": 606,
      "Ġbr": 607,
      "ho": 608,
      "ue": 609,
      "urn": 610,
      "ade": 611,
      "Ġinto": 612,
      "ary": 613,
      "ved": 614,
      "Ġcome": 615,
      "Ġgr": 616,
      "ater": 617,
      "Ġplay": 618,
      "Ġmake": 619,
      "Ġgonna": 620,
      "Ġcall": 621,
      "ble": 622,
      "ĠSt": 623,
      "age": 624,
      "Ġer": 625,
      "Ġway": 626,
      "ass": 627,
      "We": 628,
      "Ġday": 629,
      "Ġthan": 630,
      "iss": 631,
      "Ġwork": 632,
      "ord": 633,
      "ving": 634,
      "ci": 635,
      "Ġagain": 636,
      "Ġsomet": 637,
      "pl": 638,
      "be": 639,
      "ount": 640,
      "Ġtell": 641,
      "Ġmean": 642,
      "RO": 643,
      "Ġ'": 644,
      "laugh": 645,
      "oll": 646,
      "okay": 647,
      "Ġfirst": 648,
      "ff": 649,
      "Ġen": 650,
      "IS": 651,
      "Ġwhere": 652,
      "ran": 653,
      "ng": 654,
      "ire": 655,
      "self": 656,
      "mer": 657,
      "Ġam": 658,
      "wn": 659,
      "Ġafter": 660,
      "Ġtake": 661,
      "ves": 662,
      "ather": 663,
      "Ġwr": 664,
      "Ġthr": 665,
      "up": 666,
      "his": 667,
      "No": 668,
      "Ġpart": 669,
      "Ġbet": 670,
      "Ġlet": 671,
      "ĠV": 672,
      "Ġdoes": 673,
      "ach": 674,
      "uch": 675,
      "Oh": 676,
      "ĠY": 677,
      "Ġyear": 678,
      "ool": 679,
      "Ġgu": 680,
      "âĢĻ": 681,
      "Ġneed": 682,
      "Ġdis": 683,
      "Ġpr": 684,
      "Ġhapp": 685,
      "fore": 686,
      "Ġdidn": 687,
      "Ġevery": 688,
      "thing": 689,
      "ouse": 690,
      "ren": 691,
      "ps": 692,
      "Ġun": 693,
      "per": 694,
      "les": 695,
      "Ġonly": 696,
      "ub": 697,
      "SIS": 698,
      "But": 699,
      "laughs": 700,
      "Ġshould": 701,
      "pt": 702,
      "Ġour": 703,
      "day": 704,
      "nder": 705,
      "Ġmade": 706,
      "Ġsomething": 707,
      "hm": 708,
      "ull": 709,
      "Ġfl": 710,
      "act": 711,
      "ady": 712,
      "ĠShe": 713,
      "able": 714,
      "ress": 715,
      "âĢľ": 716,
      "Ġmuch": 717,
      "That": 718,
      "te": 719,
      "Ġcha": 720,
      "zz": 721,
      "og": 722,
      "oss": 723,
      "Ġpre": 724,
      "BRO": 725,
      "Ġte": 726,
      "man": 727,
      "Ġtalk": 728,
      "Ġlong": 729,
      "ory": 730,
      "Ġcar": 731,
      "Ġ201": 732,
      "ting": 733,
      "Ġwell": 734,
      "Ġco": 735,
      "irl": 736,
      "ions": 737,
      "ied": 738,
      "Ġhand": 739,
      "ated": 740,
      "Ġchi": 741,
      "ict": 742,
      "ang": 743,
      "Ġthese": 744,
      "av": 745,
      "Ġwent": 746,
      "add": 747,
      "Well": 748,
      "ix": 749,
      "Ġreally": 750,
      "Ġthrough": 751,
      "¿½": 752,
      "ï¿½": 753,
      "get": 754,
      "cc": 755,
      "Yeah": 756,
      "where": 757,
      "Ġim": 758,
      "Ġcomp": 759,
      "ile": 760,
      "uck": 761,
      "Ġbefore": 762,
      "Ġad": 763,
      "'d": 764,
      "Ġpo": 765,
      "Ġchild": 766,
      "ĠMr": 767,
      "Ġbecause": 768,
      "Ġnever": 769,
      "Ġold": 770,
      "Ġbig": 771,
      "ody": 772,
      "ise": 773,
      "Ġsha": 774,
      "anna": 775,
      "Ġthree": 776,
      "ug": 777,
      "Ġcame": 778,
      "Ġmo": 779,
      "Ġboy": 780,
      "Ġsc": 781,
      "Ġrem": 782,
      "li": 783,
      "Ġstill": 784,
      "?\"": 785,
      "Ġeat": 786,
      "Ġalso": 787,
      "ĠIn": 788,
      "Ġunder": 789,
      "Ġgreat": 790,
      "Ġke": 791,
      "Ġask": 792,
      "ful": 793,
      "Ġsm": 794,
      "Ġaway": 795,
      "Ġgirl": 796,
      "cl": 797,
      "So": 798,
      "Ġhel": 799,
      "ence": 800,
      "atch": 801,
      "Ġthought": 802,
      "ĠUn": 803,
      "Ġeven": 804,
      "ks": 805,
      "ons": 806,
      "do": 807,
      "ried": 808,
      "Ġact": 809,
      "ward": 810,
      "Ġapp": 811,
      "ip": 812,
      "iz": 813,
      "nother": 814,
      "und": 815,
      "ommy": 816,
      "Ġhome": 817,
      "Ġnew": 818,
      "Ġwanna": 819,
      "Ġlast": 820,
      "Ġper": 821,
      "Ġch": 822,
      "Ġhappen": 823,
      "Ġname": 824,
      "ect": 825,
      "land": 826,
      "ors": 827,
      "00": 828,
      "Ġcr": 829,
      "ember": 830,
      "Ġmay": 831,
      "ited": 832,
      "ath": 833,
      "UR": 834,
      "but": 835,
      "Ġdoing": 836,
      "Ġstart": 837,
      "ob": 838,
      "Ġturn": 839,
      "ates": 840,
      "old": 841,
      "ily": 842,
      "ock": 843,
      "Ġthings": 844,
      "riend": 845,
      "ah": 846,
      "ign": 847,
      "Ġmust": 848,
      "Ġthose": 849,
      "Ġhouse": 850,
      "Ġmany": 851,
      "âĢĿ": 852,
      "Ġbook": 853,
      ".]": 854,
      "Ġlea": 855,
      "Ġmother": 856,
      "chool": 857,
      "hes": 858,
      "Ġanother": 859,
      "ings": 860,
      "ny": 861,
      "ans": 862,
      "Ġcont": 863,
      "aby": 864,
      "ung": 865,
      "Ġgive": 866,
      "ĠCh": 867,
      "Ġhelp": 868,
      "Ġbu": 869,
      "Ġser": 870,
      "Ġfind": 871,
      "ious": 872,
      "ance": 873,
      "ait": 874,
      "ys": 875,
      "how": 876,
      "well": 877,
      "Ġhead": 878,
      "xt": 879,
      "lease": 880,
      "pen": 881,
      "ina": 882,
      "air": 883,
      "iv": 884,
      "ts": 885,
      "Ġtry": 886,
      "ave": 887,
      "ars": 888,
      "rain": 889,
      "Ġwon": 890,
      "Yes": 891,
      "igh": 892,
      "Ġown": 893,
      "Ġsec": 894,
      "Ġnight": 895,
      "oney": 896,
      "ĠAnd": 897,
      "rd": 898,
      "Ġcalled": 899,
      "She": 900,
      "Ġres": 901,
      "ĠĠĠĠĠĠĠĠ": 902,
      "Ġbel": 903,
      "oc": 904,
      "ail": 905,
      "Ġkind": 906,
      "Ġshow": 907,
      "Ġyears": 908,
      "Ġchan": 909,
      "aw": 910,
      "ild": 911,
      "ĠMar": 912,
      "Ġlove": 913,
      "Ġfriend": 914,
      "URS": 915,
      "Ġfour": 916,
      "huh": 917,
      "ert": 918,
      "body": 919,
      "ew": 920,
      "ĠChi": 921,
      "Ġ3": 922,
      "Ġfound": 923,
      "Ġel": 924,
      "ical": 925,
      "aking": 926,
      "Ġdone": 927,
      "gg": 928,
      "Ġbetter": 929,
      "side": 930,
      "This": 931,
      "Ġend": 932,
      "akes": 933,
      "Ġmight": 934,
      "Ġrec": 935,
      "Ġbo": 936,
      "Ġwhy": 937,
      "als": 938,
      "Ġread": 939,
      "In": 940,
      "Ġche": 941,
      "ways": 942,
      "ince": 943,
      "Ġcomm": 944,
      "ER": 945,
      "Ġokay": 946,
      "vers": 947,
      "Ġbot": 948,
      "ican": 949,
      "Ġmin": 950,
      "Ġplace": 951,
      "Ġaround": 952,
      "They": 953,
      "for": 954,
      "âĢĵ": 955,
      "Ġsuch": 956,
      "let": 957,
      "Ġsl": 958,
      "Ġfeel": 959,
      "Ġroom": 960,
      "Ġmost": 961,
      "Ġschool": 962,
      "port": 963,
      "Ġatt": 964,
      "There": 965,
      "ident": 966,
      "ces": 967,
      "ever": 968,
      "Ġgl": 969,
      "Ġbeing": 970,
      "Ġcount": 971,
      "Ġtold": 972,
      "Ġpres": 973,
      "Ġdif": 974,
      "Ġits": 975,
      "Ġ202": 976,
      "ds": 977,
      "ĠBr": 978,
      "Ġsupp": 979,
      "amp": 980,
      "Ġfather": 981,
      "Ġsure": 982,
      "rent": 983,
      "ee": 984,
      "Ġanything": 985,
      "Ġlife": 986,
      "Ġcare": 987,
      "mp": 988,
      "Ġdes": 989,
      "Ġelse": 990,
      "Ġkeep": 991,
      "Ġcour": 992,
      "led": 993,
      "Ġfin": 994,
      "ually": 995,
      "ont": 996,
      "Ġwater": 997,
      "Ġbeg": 998,
      "inn": 999,
      "why": 1000,
      "mhm": 1001,
      "Ġnum": 1002,
      "ction": 1003,
      "row": 1004,
      "ream": 1005,
      "Ġsil": 1006,
      "uc": 1007,
      "ĠYou": 1008,
      "ĠThey": 1009,
      "Ġever": 1010,
      "Ġlot": 1011,
      "Ġsame": 1012,
      "Ġnext": 1013,
      "ult": 1014,
      "orry": 1015,
      "imes": 1016,
      "ĠAmer": 1017,
      "ump": 1018,
      "Ġear": 1019,
      "Ġdr": 1020,
      "ute": 1021,
      "Ġmen": 1022,
      "Ġalways": 1023,
      "de": 1024,
      "!\"": 1025,
      "Ġfive": 1026,
      "br": 1027,
      "Ġwhile": 1028,
      "Ġbec": 1029,
      "Ġsaw": 1030,
      "Ġra": 1031,
      "AN": 1032,
      "look": 1033,
      "Ġtook": 1034,
      "ations": 1035,
      "ens": 1036,
      "mber": 1037,
      "ĠBut": 1038,
      "Ġset": 1039,
      "ss": 1040,
      "who": 1041,
      "Ġbaby": 1042,
      "Ġopen": 1043,
      "Ġnice": 1044,
      "Ġpol": 1045,
      "ec": 1046,
      "Ġstr": 1047,
      "How": 1048,
      "rest": 1049,
      "Ġused": 1050,
      "ition": 1051,
      "Ġdoesn": 1052,
      "ling": 1053,
      "ye": 1054,
      "this": 1055,
      "can": 1056,
      "Ġseem": 1057,
      "ms": 1058,
      "ï¿½ï¿½": 1059,
      "If": 1060,
      "they": 1061,
      "Ġbre": 1062,
      "HE": 1063,
      "Ġwom": 1064,
      "Ġpret": 1065,
      "Ġleft": 1066,
      "Ġpie": 1067,
      "oot": 1068,
      "Ġbus": 1069,
      "ister": 1070,
      "Ġsw": 1071,
      "Ġfam": 1072,
      "vent": 1073,
      "Ġyeah": 1074,
      "Ġrun": 1075,
      "Ġmon": 1076,
      "Ġmag": 1077,
      "ational": 1078,
      "vel": 1079,
      "ounds": 1080,
      "Why": 1081,
      "cle": 1082,
      "ret": 1083,
      "Ġfar": 1084,
      "oun": 1085,
      "outh": 1086,
      "tern": 1087,
      "Ġworld": 1088,
      "Ġstop": 1089,
      "Ġcle": 1090,
      "gether": 1091,
      "Do": 1092,
      "Ġsix": 1093,
      "ĠUnited": 1094,
      "Ġunt": 1095,
      "Ġreal": 1096,
      "Ġum": 1097,
      "aught": 1098,
      "Ġ.": 1099,
      "Ġfun": 1100,
      "ished": 1101,
      "Ġele": 1102,
      "Ġmoney": 1103,
      "Ġuse": 1104,
      "CO": 1105,
      "undred": 1106,
      "Ġhard": 1107,
      "Ġkne": 1108,
      "there": 1109,
      "she": 1110,
      "ries": 1111,
      "Ġmom": 1112,
      "Ġnumber": 1113,
      "Ġsing": 1114,
      "Ġdiffe": 1115,
      "ness": 1116,
      "Ġstay": 1117,
      "Ġwee": 1118,
      "Ġhundred": 1119,
      "gr": 1120,
      "ower": 1121,
      "Ġph": 1122,
      "Ġbelie": 1123,
      "usic": 1124,
      "ellow": 1125,
      "ope": 1126,
      "Ġwar": 1127,
      "erson": 1128,
      "pect": 1129,
      "Ġob": 1130,
      "ins": 1131,
      "Ġacc": 1132,
      "ger": 1133,
      "Ġmar": 1134,
      "anc": 1135,
      "Ġdog": 1136,
      "Ġret": 1137,
      "Ġ200": 1138,
      "Ġblack": 1139,
      "Ġgi": 1140,
      "ween": 1141,
      "leep": 1142,
      "Ġstick": 1143,
      "ĠKing": 1144,
      "Ġbir": 1145,
      "Ġtogether": 1146,
      "Ġknown": 1147,
      "Ġhappened": 1148,
      "ES": 1149,
      "hank": 1150,
      "ton": 1151,
      "Ġac": 1152,
      "me": 1153,
      "ets": 1154,
      "Ġcourse": 1155,
      "Ġwait": 1156,
      "rist": 1157,
      "Ġenough": 1158,
      "Ġyoung": 1159,
      "leas": 1160,
      "ial": 1161,
      "ta": 1162,
      "orning": 1163,
      "Chi": 1164,
      "Ġsays": 1165,
      "Ġhear": 1166,
      "did": 1167,
      "Ġuntil": 1168,
      "ph": 1169,
      "Ġbest": 1170,
      "Ġdied": 1171,
      "Ġupon": 1172,
      "LD": 1173,
      "ĠMark": 1174,
      "io": 1175,
      "ĠNew": 1176,
      "Ġsecond": 1177,
      "rew": 1178,
      "Ġcol": 1179,
      "ĠEng": 1180,
      "Ġnothing": 1181,
      "tle": 1182,
      "Ġfr": 1183,
      "Ġeyes": 1184,
      "Ġbad": 1185,
      "Ġyes": 1186,
      "Ġbetween": 1187,
      "fta": 1188,
      "Ġsur": 1189,
      "Ġwalk": 1190,
      "not": 1191,
      "Ġdoor": 1192,
      "Ġthough": 1193,
      "Ġasked": 1194,
      "oup": 1195,
      "see": 1196,
      "ĠDe": 1197,
      "Now": 1198,
      "eak": 1199,
      "Ġmat": 1200,
      "uff": 1201,
      "ĠAmerican": 1202,
      "Ġsilver": 1203,
      "Ġquite": 1204,
      "ible": 1205,
      "Ġremember": 1206,
      "az": 1207,
      "ubl": 1208,
      "Ġstand": 1209,
      "Ġchildren": 1210,
      "ged": 1211,
      "Ġpoint": 1212,
      "Ġbit": 1213,
      "Ġbed": 1214,
      "Ġhimself": 1215,
      "\".": 1216,
      "Ġhafta": 1217,
      "Ġmorning": 1218,
      "Ġfall": 1219,
      "Ġchar": 1220,
      "Ġhold": 1221,
      "Ġside": 1222,
      "ject": 1223,
      "ures": 1224,
      "ĠAr": 1225,
      "uring": 1226,
      "ĠCha": 1227,
      "Ġsit": 1228,
      "Ġvo": 1229,
      "Ġrel": 1230,
      "Ġ4": 1231,
      "ired": 1232,
      "Ġplease": 1233,
      "Ġball": 1234,
      "aut": 1235,
      "Ġlight": 1236,
      "mb": 1237,
      "ĠFran": 1238,
      "put": 1239,
      "Ġkill": 1240,
      "Ġdist": 1241,
      "any": 1242,
      "ale": 1243,
      "ents": 1244,
      "Ġlist": 1245,
      "Okay": 1246,
      "EL": 1247,
      "Ġsmall": 1248,
      "Ġsorry": 1249,
      "Ġpass": 1250,
      "Ġwanted": 1251,
      "ollow": 1252,
      "Ġcoming": 1253,
      "Ġpick": 1254,
      "Ġ_": 1255,
      "med": 1256,
      "ched": 1257,
      "then": 1258,
      "ĠMiss": 1259,
      "ohn": 1260,
      "All": 1261,
      "Ġface": 1262,
      "addy": 1263,
      "Ġseen": 1264,
      "Ġagainst": 1265,
      "ork": 1266,
      "Ġknew": 1267,
      "vie": 1268,
      "Ġfew": 1269,
      "Ġboth": 1270,
      "ters": 1271,
      "une": 1272,
      "ten": 1273,
      "ĠAn": 1274,
      "uary": 1275,
      "Ġmind": 1276,
      "ross": 1277,
      "Ġwithout": 1278,
      "enc": 1279,
      "ĠStates": 1280,
      "Ġisn": 1281,
      "Ġonce": 1282,
      "ib": 1283,
      "Ġheard": 1284,
      "ex": 1285,
      "ape": 1286,
      "Ġ18": 1287,
      "Don": 1288,
      "iet": 1289,
      "Ġlooking": 1290,
      "Ġent": 1291,
      "Ġborn": 1292,
      "ank": 1293,
      "Ġstory": 1294,
      "Ġmil": 1295,
      "cha": 1296,
      "ING": 1297,
      "Ġtop": 1298,
      "Ġdifferent": 1299,
      "Ġbase": 1300,
      "oint": 1301,
      "),": 1302,
      "most": 1303,
      "ĠAl": 1304,
      "Ġeach": 1305,
      "ctor": 1306,
      "ning": 1307,
      "Ġhur": 1308,
      "Ġreg": 1309,
      "Ġstud": 1310,
      "Ġter": 1311,
      "Ġleave": 1312,
      "ics": 1313,
      "Ġcons": 1314,
      "Ġheart": 1315,
      "ffe": 1316,
      "wh": 1317,
      "raw": 1318,
      "enty": 1319,
      "ĠJan": 1320,
      "My": 1321,
      "ier": 1322,
      "aper": 1323,
      "oud": 1324,
      "Ġ199": 1325,
      "Ġtoday": 1326,
      "pr": 1327,
      "Ġmet": 1328,
      "Is": 1329,
      "ener": 1330,
      "mm": 1331,
      "Ġbro": 1332,
      "Ġyet": 1333,
      "Ġdec": 1334,
      "ĠThis": 1335,
      "ĠMrs": 1336,
      "stand": 1337,
      "Ġtable": 1338,
      "Ġsong": 1339,
      "Ġrest": 1340,
      "Ġwhole": 1341,
      "Ġlooked": 1342,
      "cial": 1343,
      "Ġgetting": 1344,
      "Ġpretty": 1345,
      "less": 1346,
      "Ġlater": 1347,
      "orth": 1348,
      "Ġhung": 1349,
      "Ġhat": 1350,
      "ason": 1351,
      "ating": 1352,
      "Ġhands": 1353,
      "reen": 1354,
      "Ġgave": 1355,
      "Ġperson": 1356,
      "Ġkid": 1357,
      "Ġuh": 1358,
      "ular": 1359,
      "Ġeverything": 1360,
      "Ġwatch": 1361,
      "ife": 1362,
      "Ġtalking": 1363,
      "Ġdri": 1364,
      "Ġeight": 1365,
      "its": 1366,
      "Ġnear": 1367,
      "Ġinv": 1368,
      "come": 1369,
      "Ġsoon": 1370,
      "ĠSo": 1371,
      "Ġcity": 1372,
      "Ġsleep": 1373,
      "Ġsk": 1374,
      "Ġfollow": 1375,
      "ames": 1376,
      "uss": 1377,
      "Ġate": 1378,
      "ĠZ": 1379,
      "Ġhigh": 1380,
      "Ġmagn": 1381,
      "Ġwasn": 1382,
      "Ġhuh": 1383,
      "go": 1384,
      "ready": 1385,
      "sh": 1386,
      "Ġtown": 1387,
      "Ġfamily": 1388,
      "ably": 1389,
      "onder": 1390,
      "Ġ5": 1391,
      "hip": 1392,
      "Ġfood": 1393,
      "Ġsent": 1394,
      "ney": 1395,
      "zzz": 1396,
      "Ġair": 1397,
      "Ġdays": 1398,
      "ĠWe": 1399,
      "co": 1400,
      "ision": 1401,
      "ĠTh": 1402,
      "Ġpict": 1403,
      "ertain": 1404,
      "Ġred": 1405,
      "don": 1406,
      "Ġdoll": 1407,
      "ĠWhat": 1408,
      "aster": 1409,
      "Ġhaving": 1410,
      ").": 1411,
      "der": 1412,
      "ĠInd": 1413,
      "OU": 1414,
      "Ġgoes": 1415,
      "Ġans": 1416,
      "Ġbeaut": 1417,
      "Ġsince": 1418,
      "Ġhalf": 1419,
      "Ġbelieve": 1420,
      "oor": 1421,
      "Ġwind": 1422,
      "osed": 1423,
      "la": 1424,
      "Ġmeet": 1425,
      "Hey": 1426,
      "Let": 1427,
      "vern": 1428,
      "ball": 1429,
      "Ġinst": 1430,
      "ines": 1431,
      "ĠâĢĵ": 1432,
      "Ġgirls": 1433,
      "St": 1434,
      "ĠIs": 1435,
      "ounc": 1436,
      "pped": 1437,
      "Ġshall": 1438,
      "ash": 1439,
      "ĠNo": 1440,
      "Ġround": 1441,
      "Come": 1442,
      "Ġfire": 1443,
      "Ġind": 1444,
      "ĠChrist": 1445,
      "iness": 1446,
      "den": 1447,
      "Not": 1448,
      "Ġlive": 1449,
      "Ġvoice": 1450,
      "Ġwrite": 1451,
      "Ġmove": 1452,
      "Ġgone": 1453,
      "Ġstarted": 1454,
      "wo": 1455,
      "ike": 1456,
      "Ġri": 1457,
      "arah": 1458,
      "Ġspo": 1459,
      "Ġquest": 1460,
      "ĠAs": 1461,
      "part": 1462,
      "uth": 1463,
      "LO": 1464,
      "sel": 1465,
      "Ġword": 1466,
      "Ġanim": 1467,
      "cept": 1468,
      "Ġtri": 1469,
      "ĠJohn": 1470,
      "Ġpop": 1471,
      "Be": 1472,
      "eng": 1473,
      "ĠEd": 1474,
      "Ġbrother": 1475,
      "Ġerm": 1476,
      "ĠRe": 1477,
      "Ġbring": 1478,
      "Ġlo": 1479,
      "orrow": 1480,
      "ĠBe": 1481,
      "elt": 1482,
      "Ġalready": 1483,
      "Ġsaying": 1484,
      "aj": 1485,
      "Ġtrain": 1486,
      "Ġson": 1487,
      "Ġcat": 1488,
      "Ġplan": 1489,
      "Ġthir": 1490,
      "ither": 1491,
      "ully": 1492,
      "ual": 1493,
      "Ġsy": 1494,
      "dam": 1495,
      "ĠMommy": 1496,
      "Ġhor": 1497,
      "Ġhour": 1498,
      "Ġdire": 1499,
      "Ġca": 1500,
      "Ġ198": 1501,
      "ĠThere": 1502,
      "ised": 1503,
      "Ġid": 1504,
      "cted": 1505,
      "Mommy": 1506,
      "aid": 1507,
      "Ġfif": 1508,
      "Ġwrong": 1509,
      "ote": 1510,
      "fter": 1511,
      "lish": 1512,
      "ern": 1513,
      "Ġmaking": 1514,
      "ery": 1515,
      "Ġcap": 1516,
      "Ġdrink": 1517,
      "ĠGod": 1518,
      "aken": 1519,
      "iful": 1520,
      "Ġhungry": 1521,
      "Ġcountry": 1522,
      "ustr": 1523,
      "Ġready": 1524,
      "ĠPr": 1525,
      "On": 1526,
      "Ġpiece": 1527,
      "clud": 1528,
      "Ġbuild": 1529,
      "wards": 1530,
      "app": 1531,
      "Ġdear": 1532,
      "Ġunderstand": 1533,
      "ivers": 1534,
      "wer": 1535,
      "Ġbreak": 1536,
      "ison": 1537,
      "ield": 1538,
      "Ġtrying": 1539,
      "ted": 1540,
      "Ġfriends": 1541,
      "COL": 1542,
      "Ġlar": 1543,
      "Ġalong": 1544,
      "Ġdat": 1545,
      "Ġfight": 1546,
      "ĠâĢľ": 1547,
      "Ġwonder": 1548,
      "Ġmeans": 1549,
      "ax": 1550,
      "Ġcent": 1551,
      "When": 1552,
      "Ġmiss": 1553,
      "ues": 1554,
      "Ġreturn": 1555,
      "Ġfoot": 1556,
      "ober": 1557,
      "UN": 1558,
      "Ġimp": 1559,
      "Ã©": 1560,
      "Ġsub": 1561,
      "ered": 1562,
      "Ġlaugh": 1563,
      "aces": 1564,
      "Ġsound": 1565,
      "Ġcut": 1566,
      "Ġalmost": 1567,
      "Ġbas": 1568,
      "Ġsort": 1569,
      "ities": 1570,
      "Ġbecame": 1571,
      "\",": 1572,
      "ĠGer": 1573,
      "ĠSc": 1574,
      "Ġhot": 1575,
      "19": 1576,
      "Just": 1577,
      "Ġeas": 1578,
      "Ġland": 1579,
      "eth": 1580,
      "Ġage": 1581,
      "aul": 1582,
      "ĠRoss": 1583,
      "Ġmoment": 1584,
      "Ġgame": 1585,
      "ped": 1586,
      "Ġwoman": 1587,
      "omm": 1588,
      "Ġwouldn": 1589,
      "ative": 1590,
      "Ġwhe": 1591,
      "Ġbegan": 1592,
      "Ġtra": 1593,
      "by": 1594,
      "ON": 1595,
      "ury": 1596,
      "ush": 1597,
      "Ġ6": 1598,
      "Ġ7": 1599,
      "Ġpaper": 1600,
      "ows": 1601,
      "cess": 1602,
      "isit": 1603,
      "Ġjo": 1604,
      "uhhuh": 1605,
      "Ġlead": 1606,
      "alright": 1607,
      "ined": 1608,
      "Ġguy": 1609,
      "EN": 1610,
      "ric": 1611,
      "----": 1612,
      "Ġ8": 1613,
      "Ġadd": 1614,
      "ants": 1615,
      "Ġinte": 1616,
      "ĠSp": 1617,
      "Ġactually": 1618,
      "Ġref": 1619,
      "Ġspeak": 1620,
      "aybe": 1621,
      "Ġtre": 1622,
      "ital": 1623,
      "Ġproble": 1624,
      "âĢĺ": 1625,
      "du": 1626,
      "orm": 1627,
      "Ġdeath": 1628,
      "ony": 1629,
      "ken": 1630,
      "Ġrep": 1631,
      "Ġidea": 1632,
      "Ġfore": 1633,
      "Look": 1634,
      "rog": 1635,
      "Ġguys": 1636,
      "Ġtwenty": 1637,
      "Ġass": 1638,
      "Ġ197": 1639,
      ".âĢĿ": 1640,
      "Ġint": 1641,
      "ene": 1642,
      "rs": 1643,
      "rop": 1644,
      "ĠCount": 1645,
      "Ġhum": 1646,
      "Ġparty": 1647,
      "Ġguess": 1648,
      "Ġcup": 1649,
      "Ġlost": 1650,
      "Ġprom": 1651,
      "ĠTHE": 1652,
      "Ġstuff": 1653,
      "Ġpresent": 1654,
      "bably": 1655,
      "ru": 1656,
      "tain": 1657,
      "Ġposs": 1658,
      "Ġwhite": 1659,
      "Ġturned": 1660,
      "Ġbeautiful": 1661,
      "Then": 1662,
      "Ġsign": 1663,
      "ÃŃ": 1664,
      "Ġten": 1665,
      "Ġrecord": 1666,
      "Ġlooks": 1667,
      "Ġfine": 1668,
      "Ġfact": 1669,
      "Ġbrought": 1670,
      "Ġphone": 1671,
      "reet": 1672,
      "Ġcoll": 1673,
      "ept": 1674,
      "ring": 1675,
      "Ġwords": 1676,
      "ages": 1677,
      "ze": 1678,
      "Ġcertain": 1679,
      "Ġtele": 1680,
      "got": 1681,
      "AI": 1682,
      "ouch": 1683,
      "Ġduring": 1684,
      "Ġpubl": 1685,
      "Ġyellow": 1686,
      "eter": 1687,
      "Ġtimes": 1688,
      "olly": 1689,
      "ouble": 1690,
      "Ġbox": 1691,
      "Ġinterest": 1692,
      "Ġcomes": 1693,
      "ĠĠĠĠĠĠĠĠĠĠĠĠĠĠĠĠ": 1694,
      "Ġlear": 1695,
      "Ġconf": 1696,
      "kes": 1697,
      "ĠMot": 1698,
      "Ġaw": 1699,
      "ster": 1700,
      "Ġpolit": 1701,
      "Ġfull": 1702,
      "Ġweek": 1703,
      "Ġmonth": 1704,
      "Ġclose": 1705,
      "Ġpay": 1706,
      "Ġsun": 1707,
      "ese": 1708,
      "urs": 1709,
      "Ġteam": 1710,
      "Ġ9": 1711,
      "unch": 1712,
      "Ġplayed": 1713,
      "Ġexc": 1714,
      "hey": 1715,
      "ĠEnglish": 1716,
      "Ġpain": 1717,
      "ief": 1718,
      "ying": 1719,
      "Ġplaying": 1720,
      "Where": 1721,
      "ists": 1722,
      "Are": 1723,
      "ey": 1724,
      "Ġsister": 1725,
      "Ġmusic": 1726,
      "ared": 1727,
      "Ġhappy": 1728,
      "Ġoh": 1729,
      "Ġboys": 1730,
      "Ġmatter": 1731,
      "Ġtaken": 1732,
      "Ġjob": 1733,
      "NA": 1734,
      "ĠPh": 1735,
      "Ġdel": 1736,
      "Did": 1737,
      "leased": 1738,
      "GLO": 1739,
      "Ġi": 1740,
      "unt": 1741,
      "Thank": 1742,
      "âĢĶ": 1743,
      "airs": 1744,
      "ama": 1745,
      "Who": 1746,
      "Ġable": 1747,
      "Ġwand": 1748,
      "Ġmovie": 1749,
      "ead": 1750,
      "Ġbear": 1751,
      "Ġhope": 1752,
      "Th": 1753,
      "ĠAt": 1754,
      "ĠFl": 1755,
      "Ġrock": 1756,
      "ĠFor": 1757,
      "fully": 1758,
      ",âĢĿ": 1759,
      "bb": 1760,
      "Ġinclud": 1761,
      "Ġlisten": 1762,
      "read": 1763,
      "Ġext": 1764,
      "key": 1765,
      "gan": 1766,
      "ned": 1767,
      "ats": 1768,
      "Ġminute": 1769,
      "more": 1770,
      "amed": 1771,
      "Ġmed": 1772,
      "room": 1773,
      "Ġwrit": 1774,
      "MEL": 1775,
      "Ġfell": 1776,
      "Ġinc": 1777,
      "Ġherself": 1778,
      "ĠGr": 1779,
      "ming": 1780,
      "Ġdress": 1781,
      "Ġthank": 1782,
      "Ġking": 1783,
      "Ġdead": 1784,
      "Ġpoor": 1785,
      "Ġdisc": 1786,
      "hind": 1787,
      "Ġwants": 1788,
      "Ġegg": 1789,
      "Ġfelt": 1790,
      "ĠQ": 1791,
      "Ġmyself": 1792,
      "umb": 1793,
      "ole": 1794,
      "icha": 1795,
      "Ġlaw": 1796,
      "Ġart": 1797,
      "Ġcir": 1798,
      "Ġmagnet": 1799,
      "Ġ196": 1800,
      "Ġsat": 1801,
      "ided": 1802,
      "Er": 1803,
      "ple": 1804,
      "Ġinter": 1805,
      "men": 1806,
      "utes": 1807,
      "olog": 1808,
      "Ġseemed": 1809,
      "just": 1810,
      "son": 1811,
      "used": 1812,
      "idd": 1813,
      "Ġletter": 1814,
      "Ġcouldn": 1815,
      "Ġcontin": 1816,
      "rench": 1817,
      "Can": 1818,
      "Ġago": 1819,
      "eptember": 1820,
      "Ġsim": 1821,
      "Ġbar": 1822,
      "ises": 1823,
      "ĠCl": 1824,
      "Ġhair": 1825,
      "like": 1826,
      "Ġmakes": 1827,
      "Ġoffic": 1828,
      "Ġlate": 1829,
      "ner": 1830,
      "Ġpounds": 1831,
      "Ġsir": 1832,
      "Ġspe": 1833,
      "rying": 1834,
      "itc": 1835,
      "Ġleg": 1836,
      "bum": 1837,
      "Ġ10": 1838,
      "Ġsomeone": 1839,
      "Ġmaybe": 1840,
      "Ġgener": 1841,
      "ator": 1842,
      "Ġblue": 1843,
      "haps": 1844,
      "selves": 1845,
      "ĠCounty": 1846,
      "Ġgotta": 1847,
      "ĠAp": 1848,
      "Ġloc": 1849,
      "ific": 1850,
      "Ġfront": 1851,
      "oub": 1852,
      "ĠThat": 1853,
      "Ġchair": 1854,
      "Ġ,": 1855,
      "bo": 1856,
      "Ġrather": 1857,
      "gin": 1858,
      "born": 1859,
      "ĠCar": 1860,
      "Right": 1861,
      "Ġclear": 1862,
      "OR": 1863,
      "Ġlived": 1864,
      "Ġgovern": 1865,
      "ution": 1866,
      "ousand": 1867,
      "Ġfloor": 1868,
      "Ġbusiness": 1869,
      "itting": 1870,
      "ides": 1871,
      "inner": 1872,
      "head": 1873,
      "Ġwood": 1874,
      "ĠAll": 1875,
      "Ġpri": 1876,
      "Ġbehind": 1877,
      "sp": 1878,
      "Ġstrong": 1879,
      "Ġste": 1880,
      "Ġstate": 1881,
      "ĠHer": 1882,
      "Ġbirth": 1883,
      "Ġquestion": 1884,
      "oes": 1885,
      "ĠSeptember": 1886,
      "ians": 1887,
      "Ġimport": 1888,
      "Ġless": 1889,
      "ati": 1890,
      "ize": 1891,
      "Ġwomen": 1892,
      "Ġshort": 1893,
      "ments": 1894,
      "ized": 1895,
      "Ġminutes": 1896,
      "Ġdeal": 1897,
      "Ġev": 1898,
      "ĠBl": 1899,
      "ured": 1900,
      "ĠThen": 1901,
      "nina": 1902,
      "fect": 1903,
      "Ġed": 1904,
      "ĠHis": 1905,
      "Ġswe": 1906,
      "Ġgreen": 1907,
      "ense": 1908,
      "iversity": 1909,
      "ĠGerman": 1910,
      "ik": 1911,
      "Ġinside": 1912,
      "Ġcolor": 1913,
      "Ġhaven": 1914,
      "een": 1915,
      "Ġtrue": 1916,
      "sing": 1917,
      "ald": 1918,
      "Ġthousand": 1919,
      "Ġprobably": 1920,
      "Ġ2022": 1921,
      "ĠFrance": 1922,
      "ĠJanuary": 1923,
      "Ġlady": 1924,
      "Ġalone": 1925,
      "uro": 1926,
      "Ġ194": 1927,
      "Ġoutside": 1928,
      "ham": 1929,
      "atur": 1930,
      "ril": 1931,
      "Ġserv": 1932,
      "ention": 1933,
      "ford": 1934,
      "Ġcase": 1935,
      "Ġpicture": 1936,
      "aughter": 1937,
      "As": 1938,
      "Ġseven": 1939,
      "gy": 1940,
      "uly": 1941,
      "Ġcur": 1942,
      "ane": 1943,
      "Ġpower": 1944,
      "ĠCan": 1945,
      "Ġquick": 1946,
      "Ġ195": 1947,
      "Ġcook": 1948,
      "Ġes": 1949,
      "Ġfrog": 1950,
      "ones": 1951,
      "Ġtape": 1952,
      "ety": 1953,
      "pill": 1954,
      "ley": 1955,
      "Ġran": 1956,
      "Ġalbum": 1957,
      "Good": 1958,
      "ĠHow": 1959,
      "ugust": 1960,
      "At": 1961,
      "ism": 1962,
      "morrow": 1963,
      "Ġmine": 1964,
      "AL": 1965,
      "Ġcreat": 1966,
      "ider": 1967,
      "Ġroad": 1968,
      "Ġgrand": 1969,
      "erv": 1970,
      "els": 1971,
      "Ġlay": 1972,
      "RI": 1973,
      "Ġmilk": 1974,
      "Ġyourself": 1975,
      "Ġchange": 1976,
      "Ġem": 1977,
      "Ġsqu": 1978,
      "orld": 1979,
      "ears": 1980,
      "ĠBrit": 1981,
      "erc": 1982,
      "Ġhon": 1983,
      "arent": 1984,
      "Ġpull": 1985,
      "aterpill": 1986,
      "Ġpar": 1987,
      "ĠOn": 1988,
      "ĠSarah": 1989,
      "Ġexpl": 1990,
      "CHILD": 1991,
      "rian": 1992,
      "Ġtaking": 1993,
      "oth": 1994,
      "Ġprot": 1995,
      "range": 1996,
      "yep": 1997,
      "rap": 1998,
      "eor": 1999,
      "rit": 2000,
      "20": 2001,
      "mother": 2002,
      "Ġgiven": 2003,
      "Al": 2004,
      "ĠMay": 2005,
      "yup": 2006,
      "Ġmain": 2007,
      "when": 2008,
      "Ġwin": 2009,
      "Ġdark": 2010,
      "ches": 2011,
      "because": 2012,
      "Ġdream": 2013,
      "Ġoften": 2014,
      "lo": 2015,
      "form": 2016,
      "ĠMarch": 2017,
      "Ġwish": 2018,
      "ĠPar": 2019,
      "Ġmark": 2020,
      "Ġbody": 2021,
      "Ġfifty": 2022,
      "Ġarea": 2023,
      "angu": 2024,
      "Ġtrans": 2025,
      "ĠOh": 2026,
      "Ġones": 2027,
      "Ġprof": 2028,
      "ĠYork": 2029,
      "point": 2030,
      "Ġfeet": 2031,
      "che": 2032,
      "ked": 2033,
      "Ġsal": 2034,
      "ilt": 2035,
      "iously": 2036,
      "Ġwife": 2037,
      "Ġfunny": 2038,
      "GAI": 2039,
      "Ġhist": 2040,
      "ĠWill": 2041,
      "ma": 2042,
      "ctober": 2043,
      "Ġchildes": 2044,
      "CHILDES": 2045,
      "Go": 2046,
      "bs": 2047,
      "ices": 2048,
      "For": 2049,
      "Ġliving": 2050,
      "Ġhurt": 2051,
      "Ġleast": 2052,
      "enn": 2053,
      "Ġform": 2054,
      "cent": 2055,
      "ĠAugust": 2056,
      "good": 2057,
      "aterpillar": 2058,
      "fort": 2059,
      "ĠLe": 2060,
      "ipp": 2061,
      "ĠFrench": 2062,
      "Ġworking": 2063,
      "aur": 2064,
      "Ġpu": 2065,
      "Ġcold": 2066,
      "GR": 2067,
      "fl": 2068,
      "Mom": 2069,
      "Ġlarge": 2070,
      "Ġfav": 2071,
      "Ġtried": 2072,
      "rey": 2073,
      "rem": 2074,
      "Ġmill": 2075,
      "icip": 2076,
      "Ġnamed": 2077,
      "iam": 2078,
      "mas": 2079,
      "ĠFr": 2080,
      "ĠPhil": 2081,
      "rence": 2082,
      "Ġhorse": 2083,
      "ĠWorld": 2084,
      "ately": 2085,
      "Ġfig": 2086,
      "ls": 2087,
      "Ġbuy": 2088,
      "Ġreason": 2089,
      "Ġcho": 2090,
      "ummer": 2091,
      "ining": 2092,
      "ara": 2093,
      "Ġanswer": 2094,
      "Ġfair": 2095,
      "ards": 2096,
      "Ġ-": 2097,
      "vision": 2098,
      "ĠAdam": 2099,
      "Ġexpect": 2100,
      "sc": 2101,
      "ional": 2102,
      "ently": 2103,
      "Ġtree": 2104,
      "Ġbutter": 2105,
      "rict": 2106,
      "Ġwear": 2107,
      "aim": 2108,
      "Ġpast": 2109,
      "Ġothers": 2110,
      "RE": 2111,
      "ĠWhen": 2112,
      "ww": 2113,
      "hold": 2114,
      "Ġgrow": 2115,
      "Ġocc": 2116,
      "Ġdraw": 2117,
      "alth": 2118,
      "Ġline": 2119,
      "Ġeither": 2120,
      "Ġlives": 2121,
      "Ġimportant": 2122,
      "Ġsea": 2123,
      "Ġlangu": 2124,
      "itten": 2125,
      "Ġclass": 2126,
      "ament": 2127,
      "ĠOctober": 2128,
      "ĠApril": 2129,
      "Ġbat": 2130,
      "bl": 2131,
      "ĠFe": 2132,
      "Ġadv": 2133,
      "rie": 2134,
      "Ġmember": 2135,
      "Ġattack": 2136,
      "ature": 2137,
      "com": 2138,
      "ï¿½ï¿½ï¿½ï¿½": 2139,
      "Ġmess": 2140,
      "avid": 2141,
      "Ġtill": 2142,
      "âĻ": 2143,
      "Ġreport": 2144,
      "Ġsend": 2145,
      "raid": 2146,
      "Ġrece": 2147,
      "000": 2148,
      "ai": 2149,
      "arch": 2150,
      "ula": 2151,
      "oe": 2152,
      "ĠPro": 2153,
      "âĻª": 2154,
      "Ġsold": 2155,
      "Ġkids": 2156,
      "Ġgra": 2157,
      "Ġblock": 2158,
      "Ġ17": 2159,
      "Ġcompany": 2160,
      "Ġtea": 2161,
      "ĠSw": 2162,
      "Ġkilled": 2163,
      "gue": 2164,
      "Your": 2165,
      "osp": 2166,
      "Ġfree": 2167,
      "ained": 2168,
      "ement": 2169,
      "Ġglad": 2170,
      "Ġbecome": 2171,
      "Ġanimals": 2172,
      "Ġorder": 2173,
      "Ġconst": 2174,
      "Ġexp": 2175,
      "ĠHar": 2176,
      "Ġquiet": 2177,
      "ality": 2178,
      "Ġacross": 2179,
      "AS": 2180,
      "Ġcamp": 2181,
      "Ġpur": 2182,
      "Ġheld": 2183,
      "Ġamong": 2184,
      "Ġearly": 2185,
      "icks": 2186,
      "Ġdro": 2187,
      "Ġcried": 2188,
      "duc": 2189,
      "Re": 2190,
      "Ġsn": 2191,
      "ĠWar": 2192,
      "CH": 2193,
      "Ġjump": 2194,
      "ges": 2195,
      "Ġteac": 2196,
      "ĠBro": 2197,
      "Ġmoon": 2198,
      "Ġmis": 2199,
      "Ġthinking": 2200,
      "To": 2201,
      "Ġvisit": 2202,
      "Ġ2017": 2203,
      "Ġobject": 2204,
      "ffee": 2205,
      "Ġstar": 2206,
      "ler": 2207,
      "ached": 2208,
      "Ġworked": 2209,
      "ica": 2210,
      "Please": 2211,
      "ĠEuro": 2212,
      "Ġtoys": 2213,
      "ened": 2214,
      "Ġproblem": 2215,
      "Ġreleased": 2216,
      "Ġgets": 2217,
      "Ġsoft": 2218,
      "Ġgroup": 2219,
      "Ġwall": 2220,
      "itty": 2221,
      "Ġfast": 2222,
      "ĠRuss": 2223,
      "Ġcor": 2224,
      "Ġ15": 2225,
      "Ġbirthday": 2226,
      "Ġnoise": 2227,
      "aced": 2228,
      "iddle": 2229,
      "ĠUniversity": 2230,
      "HS": 2231,
      "Ġrepl": 2232,
      "Ġ193": 2233,
      "Ġill": 2234,
      "ott": 2235,
      "Ġclean": 2236,
      "dy": 2237,
      "ived": 2238,
      "Ġband": 2239,
      "illy": 2240,
      "Ġopp": 2241,
      "stem": 2242,
      "har": 2243,
      "One": 2244,
      "laughing": 2245,
      "Ġnine": 2246,
      "Ġafraid": 2247,
      "Ġmarried": 2248,
      "Ġcheck": 2249,
      "ĠRep": 2250,
      "dden": 2251,
      "two": 2252,
      "Ġfing": 2253,
      "Ġins": 2254,
      "Ġsometimes": 2255,
      "urch": 2256,
      "Ġtrouble": 2257,
      "inning": 2258,
      "Ġsingle": 2259,
      "ility": 2260,
      "Ġdem": 2261,
      "Ġcompet": 2262,
      "entle": 2263,
      "ĠMan": 2264,
      "raz": 2265,
      "Ġadm": 2266,
      "Ġbooks": 2267,
      "music": 2268,
      "Ġfinished": 2269,
      "Mark": 2270,
      "Because": 2271,
      "king": 2272,
      "ĠCon": 2273,
      "Ġ12": 2274,
      "owed": 2275,
      "AUN": 2276,
      "Ġfly": 2277,
      "ĠGu": 2278,
      "Ġtomorrow": 2279,
      "ĠIf": 2280,
      "ĠJe": 2281,
      "fic": 2282,
      "Ġhit": 2283,
      "Ġ16": 2284,
      "Ġpos": 2285,
      "ĠItal": 2286,
      "oman": 2287,
      "play": 2288,
      "Ġce": 2289,
      "cient": 2290,
      "Ġton": 2291,
      "ering": 2292,
      "Ġchance": 2293,
      "nock": 2294,
      "Ġsudden": 2295,
      "Ġfix": 2296,
      "Ġeating": 2297,
      "Ġsever": 2298,
      "band": 2299,
      "Ġresp": 2300,
      "iver": 2301,
      "Ġdaughter": 2302,
      "ĠPaul": 2303,
      "ĠTo": 2304,
      "ically": 2305,
      "Ġvill": 2306,
      "ĠEngland": 2307,
      "ĠGeor": 2308,
      "Ġkept": 2309,
      "Mm": 2310,
      "hanks": 2311,
      "Ġpublic": 2312,
      "ician": 2313,
      "Ġgovernment": 2314,
      "Ġeng": 2315,
      "resident": 2316,
      "iny": 2317,
      "ging": 2318,
      "Ġforget": 2319,
      "'.": 2320,
      "Mr": 2321,
      "phan": 2322,
      "Ġbag": 2323,
      "ox": 2324,
      "ana": 2325,
      "night": 2326,
      "eared": 2327,
      "Ġthemselves": 2328,
      "ode": 2329,
      "itchen": 2330,
      "ising": 2331,
      "Here": 2332,
      "ĠMin": 2333,
      "ĠGo": 2334,
      "Ġprov": 2335,
      "ĠDon": 2336,
      "Ġsweet": 2337,
      "Ġnin": 2338,
      "Ġtoy": 2339,
      "anger": 2340,
      "Ġcorn": 2341,
      "Ġz": 2342,
      "Ġsca": 2343,
      "owers": 2344,
      "Ġmot": 2345,
      "ories": 2346,
      "Ġmonths": 2347,
      "ĠBar": 2348,
      "Ġseveral": 2349,
      "Ġstore": 2350,
      "Ġwithin": 2351,
      "Ġdepart": 2352,
      "bed": 2353,
      "Ġnational": 2354,
      "Ġground": 2355,
      "IT": 2356,
      "Ġpot": 2357,
      "Ġwindow": 2358,
      "Ġsurpr": 2359,
      "Ġmur": 2360,
      "Ġwa": 2361,
      "Ġevent": 2362,
      "idge": 2363,
      "LE": 2364,
      "Ġdinner": 2365,
      "ajor": 2366,
      "Ġgold": 2367,
      "Ġeye": 2368,
      "ello": 2369,
      "ĠDr": 2370,
      "ains": 2371,
      "ĠYOU": 2372,
      "velop": 2373,
      "EX": 2374,
      "Ġkitchen": 2375,
      "ĠâĢĺ": 2376,
      "Ġfish": 2377,
      "does": 2378,
      "Ġice": 2379,
      "ĠChristmas": 2380,
      "ued": 2381,
      "ĠTO": 2382,
      "Ross": 2383,
      "]?": 2384,
      "Ġmouth": 2385,
      "ĠJuly": 2386,
      "Ġstood": 2387,
      "ĠBen": 2388,
      "Ġfil": 2389,
      "Ġgoin": 2390,
      "Ġknows": 2391,
      "oon": 2392,
      "overed": 2393,
      "Ġtouch": 2394,
      "ĠDaddy": 2395,
      "ĠBritish": 2396,
      "iding": 2397,
      "ĠYeah": 2398,
      "iron": 2399,
      "ovember": 2400,
      "ĠChar": 2401,
      ",--": 2402,
      "Ġbath": 2403,
      "Ġrain": 2404,
      "Ġcoffee": 2405,
      "ĠEurope": 2406,
      "iday": 2407,
      "gram": 2408,
      "ĠCity": 2409,
      "Ġclot": 2410,
      "actly": 2411,
      "erry": 2412,
      "Ġgun": 2413,
      "Ġorgan": 2414,
      "Ġ?": 2415,
      "bruary": 2416,
      "Ġhors": 2417,
      "points": 2418,
      "cember": 2419,
      "Ġwhether": 2420,
      "An": 2421,
      "col": 2422,
      "nes": 2423,
      "Ġforgot": 2424,
      "ude": 2425,
      "with": 2426,
      "ĠCol": 2427,
      "Ġabove": 2428,
      "Ġrunning": 2429,
      "Ġtem": 2430,
      "Ġcaterpillar": 2431,
      "Ah": 2432,
      "Ġarm": 2433,
      "Ġ11": 2434,
      ".'": 2435,
      "teen": 2436,
      "aint": 2437,
      "ccess": 2438,
      "Ġ2021": 2439,
      "Ġeasy": 2440,
      "Ġmist": 2441,
      "Ġexper": 2442,
      "Ġseries": 2443,
      "Ġtreat": 2444,
      "con": 2445,
      "oof": 2446,
      "urg": 2447,
      "Ġsomebody": 2448,
      "Every": 2449,
      "Ġblood": 2450,
      "Ġsitting": 2451,
      "Ġpleas": 2452,
      "Ġdoctor": 2453,
      "ract": 2454,
      "ĠYes": 2455,
      "Ġcross": 2456,
      "Ġlonger": 2457,
      "Ġwrote": 2458,
      "irt": 2459,
      "Ġty": 2460,
      "ĠPe": 2461,
      "Ġsystem": 2462,
      "hin": 2463,
      "Ġleng": 2464,
      "ĠMother": 2465,
      "Ġcomple": 2466,
      "yl": 2467,
      "HV": 2468,
      "Ġpage": 2469,
      "Ġhoney": 2470,
      "ird": 2471,
      "Ġseems": 2472,
      "Ġgentle": 2473,
      "ĠDavid": 2474,
      "que": 2475,
      "was": 2476,
      "Ġfa": 2477,
      "Ġspecial": 2478,
      "Ġest": 2479,
      "Ġ2019": 2480,
      "Ġhuman": 2481,
      "thank": 2482,
      "Ġhop": 2483,
      "LLD": 2484,
      "HSLLD": 2485,
      "dom": 2486,
      "Ġoffice": 2487,
      "Ġinde": 2488,
      "Ġdef": 2489,
      "mpions": 2490,
      "astic": 2491,
      "Ġperhaps": 2492,
      "bye": 2493,
      "Ġhours": 2494,
      "ounced": 2495,
      "Ġtonight": 2496,
      "ushed": 2497,
      "Ġconc": 2498,
      "avy": 2499,
      "Ġprofess": 2500,
      "ium": 2501,
      "Ġfootball": 2502,
      "ĠComm": 2503,
      "joy": 2504,
      "Ġtelling": 2505,
      "phone": 2506,
      "Ġdoub": 2507,
      "essie": 2508,
      "Ġtelevision": 2509,
      "Some": 2510,
      "Ġhang": 2511,
      "Ġnor": 2512,
      "ĠMy": 2513,
      "Ġmeant": 2514,
      "ager": 2515,
      "reed": 2516,
      "Ġstreet": 2517,
      "Ġalright": 2518,
      "Ġdra": 2519,
      "ĠNovember": 2520,
      "Ġevening": 2521,
      "gar": 2522,
      "Ġahead": 2523,
      "Ġya": 2524,
      "Ġstra": 2525,
      "ED": 2526,
      "unk": 2527,
      "unity": 2528,
      "Ġmod": 2529,
      "ĠDo": 2530,
      "Ġhowever": 2531,
      "uthor": 2532,
      "TER": 2533,
      "ondon": 2534,
      "mbers": 2535,
      "Ġstep": 2536,
      "ots": 2537,
      "ĠAf": 2538,
      "Ġboat": 2539,
      "Ġthird": 2540,
      "usband": 2541,
      "ĠMary": 2542,
      "Ġyours": 2543,
      "ĠFebruary": 2544,
      "some": 2545,
      "wait": 2546,
      "Ġcake": 2547,
      "Ġpartic": 2548,
      "eal": 2549,
      "itch": 2550,
      "Ġdad": 2551,
      "Ġdi": 2552,
      "Ġroll": 2553,
      "ouncil": 2554,
      "Ġnews": 2555,
      "Ġaren": 2556,
      "ĠPart": 2557,
      "Ġanymore": 2558,
      "Ġslow": 2559,
      "Ġmillion": 2560,
      "Ġhar": 2561,
      "Ġgod": 2562,
      "Ġsafe": 2563,
      "ĠJune": 2564,
      "Ġperfect": 2565,
      "Ġwhom": 2566,
      "Ġsupport": 2567,
      "ĠMom": 2568,
      "Ġride": 2569,
      "Ġpresident": 2570,
      "ĠPresident": 2571,
      "Ġ2016": 2572,
      "ĠDecember": 2573,
      "rat": 2574,
      "Ġbuilding": 2575,
      "ĠNational": 2576,
      "Ġprison": 2577,
      "fly": 2578,
      "Ġanyone": 2579,
      "Ġmoved": 2580,
      "Ġbird": 2581,
      "Ġsounds": 2582,
      "Ġpassed": 2583,
      "ror": 2584,
      "Ġlad": 2585,
      "Ġinstead": 2586,
      "Ġann": 2587,
      "Ġ14": 2588,
      "Ġring": 2589,
      "Ġwritten": 2590,
      "Uh": 2591,
      "Ġ13": 2592,
      "rigin": 2593,
      "ilver": 2594,
      "Ġbuilt": 2595,
      "Ġclos": 2596,
      "ĠPl": 2597,
      "Ġstanding": 2598,
      "resent": 2599,
      "Ex": 2600,
      "llustr": 2601,
      "Ġnoises": 2602,
      "Ġtired": 2603,
      "Ġdefe": 2604,
      "ĠLondon": 2605,
      "Ġ192": 2606,
      "Ġthirty": 2607,
      "ron": 2608,
      "Ġcontro": 2609,
      "Ġcoup": 2610,
      "Ġhistory": 2611,
      "anta": 2612,
      "fer": 2613,
      "Ġweeks": 2614,
      "bit": 2615,
      "ange": 2616,
      "Ġeverybody": 2617,
      "ov": 2618,
      "Ġglass": 2619,
      "terday": 2620,
      "Ġcharac": 2621,
      "Ġpark": 2622,
      "Ġ2015": 2623,
      "ET": 2624,
      "Ġmount": 2625,
      "Ġloud": 2626,
      "Ġthrow": 2627,
      "Ġhusband": 2628,
      "ĠSouth": 2629,
      "Ġtakes": 2630,
      "Ġabs": 2631,
      "ressed": 2632,
      "ced": 2633,
      "Ġwaiting": 2634,
      "Ġfle": 2635,
      "ĠJack": 2636,
      "thened": 2637,
      "Ġsick": 2638,
      "ĠCal": 2639,
      "Ġdiv": 2640,
      "Ġsave": 2641,
      "Ġtruck": 2642,
      "Ġcirc": 2643,
      "ored": 2644,
      "Ġdanger": 2645,
      "unicip": 2646,
      "ĠHouse": 2647,
      "ĠWh": 2648,
      "Ġdaddy": 2649,
      "Ġtrees": 2650,
      "ping": 2651,
      "Ġpossible": 2652,
      "dat": 2653,
      "ĠDor": 2654,
      "emy": 2655,
      "Ġclim": 2656,
      "ground": 2657,
      "bout": 2658,
      "cri": 2659,
      "Ġcand": 2660,
      "Ġcop": 2661,
      "ency": 2662,
      "Maybe": 2663,
      "Ġcost": 2664,
      "Ġdeep": 2665,
      "Ġdevelop": 2666,
      "Ġ#": 2667,
      "Ġsnow": 2668,
      "Ġbreat": 2669,
      "Ġfit": 2670,
      "estern": 2671,
      "Ġlunch": 2672,
      "ended": 2673,
      "Ġdep": 2674,
      "tom": 2675,
      "Ġparent": 2676,
      "par": 2677,
      "Ġfear": 2678,
      "Ġformer": 2679,
      "Of": 2680,
      "Ġcast": 2681,
      "Ġknock": 2682,
      "iter": 2683,
      "Ġsecret": 2684,
      "Ġ2020": 2685,
      "ternational": 2686,
      "stairs": 2687,
      "Ġwhatever": 2688,
      "Ġteacher": 2689,
      "idence": 2690,
      "Ġsuppose": 2691,
      "Ġsand": 2692,
      "amb": 2693,
      "Ġbroke": 2694,
      "AY": 2695,
      "Ġbow": 2696,
      "att": 2697,
      ",'": 2698,
      "Ġreturned": 2699,
      "Ġmembers": 2700,
      "Ġve": 2701,
      "ĠSe": 2702,
      "Ġtest": 2703,
      "Ġcertainly": 2704,
      "iled": 2705,
      "Ġplaces": 2706,
      "Ġswim": 2707,
      "hel": 2708,
      "Ġfur": 2709,
      "Ġcannot": 2710,
      "Ġspace": 2711,
      "ky": 2712,
      "noon": 2713,
      "Ġindeed": 2714,
      "Ġstraight": 2715,
      "Ġru": 2716,
      "unday": 2717,
      "Ġfeeling": 2718,
      "ĠCap": 2719,
      "Ġriver": 2720,
      "ospital": 2721,
      "omb": 2722,
      "Ġsuccess": 2723,
      "uel": 2724,
      "Ġterri": 2725,
      "Ġwriting": 2726,
      "Ġenjoy": 2727,
      "Ġpost": 2728,
      "ĠTr": 2729,
      "Ġwarm": 2730,
      "maybe": 2731,
      "Ġarri": 2732,
      "ior": 2733,
      "Ġfellow": 2734,
      "ulation": 2735,
      "Ġpuzz": 2736,
      "HAT": 2737,
      "ral": 2738,
      "ĠAm": 2739,
      "ĠOne": 2740,
      "With": 2741,
      "Ġvar": 2742,
      "Ġclothes": 2743,
      "US": 2744,
      "Ġluck": 2745,
      "ĠJust": 2746,
      "oul": 2747,
      "Ġspell": 2748,
      "Ġpolice": 2749,
      "Ġcry": 2750,
      "Ġda": 2751,
      "ĠNorth": 2752,
      "Ġsupposed": 2753,
      "Ġprotect": 2754,
      "Ġcaught": 2755,
      "Ġoper": 2756,
      "llo": 2757,
      "Ġstri": 2758,
      "though": 2759,
      "Ġworks": 2760,
      "Ġparticular": 2761,
      "Ġspec": 2762,
      "II": 2763,
      "Illustr": 2764,
      "Ġmiddle": 2765,
      "arden": 2766,
      "Ġarms": 2767,
      "ĠMarky": 2768,
      "Get": 2769,
      "oose": 2770,
      "ĠAN": 2771,
      "ĠPer": 2772,
      "Ġdisapp": 2773,
      "Ã¡": 2774,
      "Ġlow": 2775,
      "Ġexactly": 2776,
      "Ġdecided": 2777,
      "Ġdet": 2778,
      "Ġprogram": 2779,
      "After": 2780,
      "ĠTe": 2781,
      "Have": 2782,
      "time": 2783,
      "Ġpen": 2784,
      "Ġtruth": 2785,
      "Ġdiffic": 2786,
      "Ġvict": 2787,
      "Ġprodu": 2788,
      "Ch": 2789,
      "empt": 2790,
      "Ġeveryone": 2791,
      "Illustration": 2792,
      "Ġval": 2793,
      "Ġcouple": 2794,
      "Ġclub": 2795,
      "Ġkiss": 2796,
      "Ġusually": 2797,
      "Ġchanged": 2798,
      "Ġlanguage": 2799,
      "Ġdest": 2800,
      "ask": 2801,
      "Ġpieces": 2802,
      "ĠSha": 2803,
      "Ġorigin": 2804,
      "uri": 2805,
      "Ġbright": 2806,
      "Ġcool": 2807,
      "bor": 2808,
      "Ġmunicip": 2809,
      "igg": 2810,
      "ĠNe": 2811,
      "hile": 2812,
      "ĠIndian": 2813,
      "AP": 2814,
      "Ġsell": 2815,
      "Ġdistrict": 2816,
      "Ġpictures": 2817,
      "ĠIN": 2818,
      "cher": 2819,
      "over": 2820,
      "Ġpolitician": 2821,
      "Or": 2822,
      "Ġwild": 2823,
      "Ġyesterday": 2824,
      "ichard": 2825,
      "Ġsouth": 2826,
      "Ġafternoon": 2827,
      "Ġdrive": 2828,
      "mo": 2829,
      "ctions": 2830,
      "hire": 2831,
      "aser": 2832,
      "icy": 2833,
      "ĠGeorge": 2834,
      "Ġcal": 2835,
      "Ġwhose": 2836,
      "Ġ30": 2837,
      "Ġbes": 2838,
      "Ġfollowing": 2839,
      "ID": 2840,
      "ĠNot": 2841,
      "Ġcars": 2842,
      "ĠNor": 2843,
      "ris": 2844,
      "Ġcream": 2845,
      "oops": 2846,
      "Ġforward": 2847,
      "Ġcommon": 2848,
      "Ġfinish": 2849,
      "Ġgeneral": 2850,
      "silver": 2851,
      "ourn": 2852,
      "Ġ...": 2853,
      "Ġvillage": 2854,
      "Ġbroken": 2855,
      "Ġuncle": 2856,
      "Ġ)": 2857,
      "Ġnorth": 2858,
      "Ġlevel": 2859,
      "Ġappro": 2860,
      "ding": 2861,
      "Ġlearn": 2862,
      "iger": 2863,
      "yy": 2864,
      "ĠEdna": 2865,
      "Ġbra": 2866,
      "Ġvide": 2867,
      "wered": 2868,
      "which": 2869,
      "Ġcomplete": 2870,
      "Ġserved": 2871,
      "Ġdoubt": 2872,
      "Ġliked": 2873,
      "Ġarmy": 2874,
      "Ġfavor": 2875,
      "Ġdepartment": 2876,
      "Ġbur": 2877,
      "Ġow": 2878,
      "Ġhole": 2879,
      "ĠAfter": 2880,
      "Ġrul": 2881,
      "encil": 2882,
      "Ġearth": 2883,
      "ĠParty": 2884,
      "lin": 2885,
      "Ġself": 2886,
      "Ġju": 2887,
      "Ġsuper": 2888,
      "ffic": 2889,
      "Ġneeds": 2890,
      "min": 2891,
      "Ġputting": 2892,
      "Ġpoints": 2893,
      "Ġsus": 2894,
      "ĠLord": 2895,
      "Ġprop": 2896,
      "whis": 2897,
      "amer": 2898,
      "Ġpract": 2899,
      "Ġfail": 2900,
      "Ġequ": 2901,
      "Ġstopped": 2902,
      "Ġfigure": 2903,
      "CK": 2904,
      "Ġain": 2905,
      "Ġimag": 2906,
      "Ġhappens": 2907,
      "Ġcareer": 2908,
      "Any": 2909,
      "tell": 2910,
      "lex": 2911,
      "Ġopened": 2912,
      "Ġpencil": 2913,
      "Ġanswered": 2914,
      "Ġesc": 2915,
      "MA": 2916,
      "Ġang": 2917,
      "lt": 2918,
      "watch": 2919,
      "ĠSunday": 2920,
      "ada": 2921,
      "aged": 2922,
      "Ġmatch": 2923,
      "Ġfield": 2924,
      "ording": 2925,
      "fast": 2926,
      "Ġhast": 2927,
      "nce": 2928,
      "nel": 2929,
      "ribut": 2930,
      "Ġstre": 2931,
      "Ġanybody": 2932,
      "OM": 2933,
      "Ġstrange": 2934,
      "Ġusing": 2935,
      "Ġleaf": 2936,
      "Ġdie": 2937,
      "othy": 2938,
      "Ġ25": 2939,
      "ĠX": 2940,
      "Ġauthor": 2941,
      "olved": 2942,
      "ti": 2943,
      "Ġworth": 2944,
      "ample": 2945,
      "Ġeighty": 2946,
      "ege": 2947,
      "give": 2948,
      "ogn": 2949,
      "Ġproper": 2950,
      "ĠEar": 2951,
      "Ġ]": 2952,
      "Ġtowards": 2953,
      "acy": 2954,
      "Ġav": 2955,
      "Ġsummer": 2956,
      "Ġwhis": 2957,
      "Ġbelong": 2958,
      "Ġfill": 2959,
      "ĠSec": 2960,
      "ustral": 2961,
      "ĠGermany": 2962,
      "Ġhorses": 2963,
      "Ġtur": 2964,
      "Ġled": 2965,
      "ceed": 2966,
      "Ġdev": 2967,
      "Hello": 2968,
      "cuse": 2969,
      "Ġcatch": 2970,
      "ĠWest": 2971,
      "sha": 2972,
      "Ġgrew": 2973,
      "uke": 2974,
      "ashing": 2975,
      "Ġworry": 2976,
      "ĠAld": 2977,
      "Ġnose": 2978,
      "Ġtrust": 2979,
      "Ġdesign": 2980,
      "ays": 2981,
      "Ġreceived": 2982,
      "Ġgiving": 2983,
      "ya": 2984,
      "eg": 2985,
      "Ġprin": 2986,
      "iew": 2987,
      "--------": 2988,
      "iced": 2989,
      "Ġshot": 2990,
      "Ġhig": 2991,
      "Ġcheese": 2992,
      "ĠQue": 2993,
      "Ġforty": 2994,
      "ĠOF": 2995,
      "ĠWell": 2996,
      "Ġmeeting": 2997,
      "yn": 2998,
      "Ġbeat": 2999,
      "Ġnut": 3000,
      "Ġparents": 3001,
      "uit": 3002,
      "Ġneigh": 3003,
      "ums": 3004,
      "of": 3005,
      "Ġseat": 3006,
      "ĠWilliam": 3007,
      "Ġcre": 3008,
      "cell": 3009,
      "Ġlaughing": 3010,
      "Ġproduc": 3011,
      "Ġchick": 3012,
      "field": 3013,
      "inos": 3014,
      "Ġlose": 3015,
      "ĠBessie": 3016,
      "ino": 3017,
      "Ġlau": 3018,
      "Ġheavy": 3019,
      "view": 3020,
      "oura": 3021,
      "Ġtot": 3022,
      "order": 3023,
      "lands": 3024,
      "Ġburn": 3025,
      "olute": 3026,
      "GRA": 3027,
      "uture": 3028,
      "ĠSh": 3029,
      "Ġholding": 3030,
      "cially": 3031,
      "Ġcover": 3032,
      "ffect": 3033,
      "ichael": 3034,
      "olution": 3035,
      "apan": 3036,
      "OK": 3037,
      "Ġrequ": 3038,
      "ĠWal": 3039,
      "Ġmaster": 3040,
      "Ġlab": 3041,
      "iers": 3042,
      "Ġ23": 3043,
      "gest": 3044,
      "would": 3045,
      "your": 3046,
      "Ġquickly": 3047,
      "work": 3048,
      "Ġpack": 3049,
      "Ġhospital": 3050,
      "Ġship": 3051,
      "Ġreached": 3052,
      "Ġstation": 3053,
      "Wh": 3054,
      "ills": 3055,
      "Ġ24": 3056,
      "Ġelephan": 3057,
      "ĠEle": 3058,
      "ĠAd": 3059,
      "ified": 3060,
      "ĠNow": 3061,
      "ggest": 3062,
      "Ġpat": 3063,
      "ira": 3064,
      "Ġsuggest": 3065,
      "Ġposition": 3066,
      "ius": 3067,
      "Ġrad": 3068,
      "ROG": 3069,
      "AM": 3070,
      "ances": 3071,
      "Ġanyway": 3072,
      "ĠAg": 3073,
      "Ġreading": 3074,
      "ĠAustral": 3075,
      "Ġshop": 3076,
      "Ġspir": 3077,
      "Ġpretend": 3078,
      "Sarah": 3079,
      "iol": 3080,
      "ille": 3081,
      "Ġsol": 3082,
      "oke": 3083,
      "Ġsight": 3084,
      "Ġconsider": 3085,
      "OW": 3086,
      "Ġtit": 3087,
      "ander": 3088,
      "Erm": 3089,
      "Ġ21": 3090,
      "âĢľâĢĺ": 3091,
      "Ġthou": 3092,
      "rup": 3093,
      "Ġfort": 3094,
      "Ġexcl": 3095,
      "Ġloved": 3096,
      "viously": 3097,
      "ĠCom": 3098,
      "ization": 3099,
      "ips": 3100,
      "Ġseason": 3101,
      "iling": 3102,
      "Ġapple": 3103,
      "Ġforest": 3104,
      "por": 3105,
      "Ġsense": 3106,
      "Ġstarts": 3107,
      "ĠTed": 3108,
      "Ġfollowed": 3109,
      "See": 3110,
      "Ġmad": 3111,
      "Ġsevent": 3112,
      "ĠEm": 3113,
      "Ġcond": 3114,
      "Ġwonderful": 3115,
      "Ġinform": 3116,
      "Ġemp": 3117,
      "Ġjuice": 3118,
      "zer": 3119,
      "ĠBear": 3120,
      "Ġcommune": 3121,
      "singing": 3122,
      "Home": 3123,
      "mon": 3124,
      "ray": 3125,
      "yer": 3126,
      "ĠHen": 3127,
      "Ġquar": 3128,
      "ĠAnge": 3129,
      "Ġeduc": 3130,
      "ĠCent": 3131,
      "Ġapart": 3132,
      "aimed": 3133,
      "Ġscared": 3134,
      "ĠSir": 3135,
      "Ġshoes": 3136,
      "Ġletters": 3137,
      "Ġtast": 3138,
      "Ġla": 3139,
      "Ġplate": 3140,
      "LL": 3141,
      "Sorry": 3142,
      "Ġneck": 3143,
      "Ġflowers": 3144,
      "Ġhous": 3145,
      "Ġexcept": 3146,
      "makes": 3147,
      "Ġhol": 3148,
      "ĠGreat": 3149,
      "Ġgarden": 3150,
      "riage": 3151,
      "Ġtail": 3152,
      "ishing": 3153,
      "Ġdanc": 3154,
      "Ġeffect": 3155,
      "rill": 3156,
      "ences": 3157,
      "lymp": 3158,
      "ĠDan": 3159,
      "Ġsuddenly": 3160,
      "ives": 3161,
      "ugg": 3162,
      "?âĢĿ": 3163,
      "ience": 3164,
      "Ġactiv": 3165,
      "Ġwat": 3166,
      "VE": 3167,
      "ĠWhy": 3168,
      "Ġban": 3169,
      "Ġlovely": 3170,
      "Ġbeginning": 3171,
      "Ġpress": 3172,
      "Ġaccept": 3173,
      "Ġpriv": 3174,
      "dis": 3175,
      "vin": 3176,
      "Ġsad": 3177,
      "Ġcause": 3178,
      "pers": 3179,
      "aturday": 3180,
      "Ġcharacter": 3181,
      "Ġoffe": 3182,
      "ugs": 3183,
      "Ġview": 3184,
      "Ġrecogn": 3185,
      "worth": 3186,
      "Ġservice": 3187,
      "Ġstat": 3188,
      "Ġkn": 3189,
      "soci": 3190,
      "Ġsupper": 3191,
      "board": 3192,
      "Ġjud": 3193,
      "ĠOr": 3194,
      "sey": 3195,
      "ĠAust": 3196,
      "ĠNet": 3197,
      "Ġfuture": 3198,
      "Ġhealth": 3199,
      "Ġcircle": 3200,
      "iff": 3201,
      "ift": 3202,
      "ĠOlymp": 3203,
      "Ġbread": 3204,
      "ĠRepubl": 3205,
      "sit": 3206,
      "Ġproblems": 3207,
      "Ġgas": 3208,
      "Ġmoving": 3209,
      "Ġincluding": 3210,
      "Ġmajor": 3211,
      "ĠEx": 3212,
      "Ġboard": 3213,
      "puts": 3214,
      "Ġcurrent": 3215,
      "Ġcorner": 3216,
      "THE": 3217,
      "cer": 3218,
      "Ġdance": 3219,
      "Ġspend": 3220,
      "omething": 3221,
      "RIC": 3222,
      "iod": 3223,
      "unny": 3224,
      "Ġought": 3225,
      "ĠJapan": 3226,
      "Ġinvest": 3227,
      "Ġvideo": 3228,
      "Ġnina": 3229,
      "ĠPark": 3230,
      "ĠPeter": 3231,
      "ummy": 3232,
      "Ġcollect": 3233,
      "ĠGl": 3234,
      "ograp": 3235,
      "His": 3236,
      "Thanks": 3237,
      "Ġgen": 3238,
      "Ġiss": 3239,
      "sy": 3240,
      "urse": 3241,
      "ission": 3242,
      "Ġspoke": 3243,
      "Ġcreated": 3244,
      "AD": 3245,
      "ĠTur": 3246,
      "Ġappear": 3247,
      "Ġleaving": 3248,
      "Like": 3249,
      "exas": 3250,
      "Ġdifficult": 3251,
      "Ġmommy": 3252,
      "eder": 3253,
      "omin": 3254,
      "Ġcomfort": 3255,
      "Ġbased": 3256,
      "Ġnames": 3257,
      "itted": 3258,
      "ĠÃ": 3259,
      "Ġcompl": 3260,
      "ĠLea": 3261,
      "ply": 3262,
      "val": 3263,
      "uce": 3264,
      "Ġsugar": 3265,
      "tered": 3266,
      "Ġexample": 3267,
      "ades": 3268,
      "ĠSm": 3269,
      "ĠSy": 3270,
      "ĠSis": 3271,
      "iforn": 3272,
      "isten": 3273,
      "Ġbrown": 3274,
      "ĠAmerica": 3275,
      "Ġreplied": 3276,
      "Ġseeing": 3277,
      "Ġcompan": 3278,
      "Ġchurch": 3279,
      "ruction": 3280,
      "ĠPol": 3281,
      "pered": 3282,
      "Ġbusy": 3283,
      "pping": 3284,
      "itions": 3285,
      "ĠDad": 3286,
      "Ġ22": 3287,
      "Ġdelight": 3288,
      "picks": 3289,
      "]!": 3290,
      "ifornia": 3291,
      "boy": 3292,
      "wood": 3293,
      "Ġcow": 3294,
      "pper": 3295,
      "Tell": 3296,
      "Ġbank": 3297,
      "Ġmention": 3298,
      "itched": 3299,
      "Ġcrying": 3300,
      "ests": 3301,
      "Ġvol": 3302,
      "ancy": 3303,
      "Ġbreakfast": 3304,
      "Ġlocal": 3305,
      "ĠEve": 3306,
      "Ġbottom": 3307,
      "Ġblocks": 3308,
      "Mar": 3309,
      "Ġlie": 3310,
      "chan": 3311,
      "ient": 3312,
      "oop": 3313,
      "ĠUrs": 3314,
      "Ġcalling": 3315,
      "Ġregion": 3316,
      "Ġsli": 3317,
      "ument": 3318,
      "Ġfinger": 3319,
      "nic": 3320,
      "Ġdecl": 3321,
      "Ġshar": 3322,
      "Ġphot": 3323,
      "ĠDorothy": 3324,
      "Ġmunicipality": 3325,
      "round": 3326,
      "hys": 3327,
      "Wait": 3328,
      "mond": 3329,
      "Ġtiny": 3330,
      "ĠRichard": 3331,
      "ĠOf": 3332,
      "ĠVisit": 3333,
      "ĠJane": 3334,
      "kin": 3335,
      "Ġcareful": 3336,
      "Ġrepresent": 3337,
      "ĠItaly": 3338,
      "Ġgames": 3339,
      "Ġpopulation": 3340,
      "Ġdiscuss": 3341,
      "10": 3342,
      "rer": 3343,
      "ĠCo": 3344,
      "Ġcarried": 3345,
      "Ġquestions": 3346,
      "bers": 3347,
      "ĠSanta": 3348,
      "resh": 3349,
      "ĠOx": 3350,
      "Ġitself": 3351,
      "irm": 3352,
      "Ġanx": 3353,
      "ĠRoman": 3354,
      "Ġwatching": 3355,
      "Ġcard": 3356,
      "ĠSaturday": 3357,
      "Ġcrit": 3358,
      "Ġhate": 3359,
      "Ġlegs": 3360,
      "Ġfurther": 3361,
      "ĠLou": 3362,
      "will": 3363,
      "Ġnobody": 3364,
      "ĠJeff": 3365,
      "Ġwan": 3366,
      "Ġpuzzle": 3367,
      "Ġbell": 3368,
      "Ġappeared": 3369,
      "raft": 3370,
      "Ġalive": 3371,
      "Ġanimal": 3372,
      "Ġep": 3373,
      "ĠChampions": 3374,
      "ĠCalifornia": 3375,
      "Ne": 3376,
      "turn": 3377,
      "apa": 3378,
      "Ġasking": 3379,
      "Ġhelped": 3380,
      "Ġbottle": 3381,
      "Ġaccount": 3382,
      "Ġputs": 3383,
      "Ġsixty": 3384,
      "itary": 3385,
      "ĠQueen": 3386,
      "ĠBaby": 3387,
      "Ġflat": 3388,
      "ĠMinister": 3389,
      "het": 3390,
      "Ġdere": 3391,
      "Ġperfor": 3392,
      "take": 3393,
      "Ġentire": 3394,
      "Will": 3395,
      "Ġcarry": 3396,
      "ercy": 3397,
      "yed": 3398,
      "str": 3399,
      "cket": 3400,
      "know": 3401,
      "want": 3402,
      "Ġstuck": 3403,
      "ĠMc": 3404,
      "ourt": 3405,
      "Ġobjects": 3406,
      "off": 3407,
      "omen": 3408,
      "ĠSchool": 3409,
      "Ġrelig": 3410,
      "ĠThese": 3411,
      "Ġproud": 3412,
      "GH": 3413,
      "Ġmid": 3414,
      "Ġlock": 3415,
      "ĠSome": 3416,
      "Ġtrack": 3417,
      "Ġstudio": 3418,
      "Adam": 3419,
      "Ġbought": 3420,
      "ico": 3421,
      "ĠGree": 3422,
      "Ġwalked": 3423,
      "ĠWith": 3424,
      "epend": 3425,
      "Me": 3426,
      "Un": 3427,
      "hood": 3428,
      "ĠNina": 3429,
      "Ġbigger": 3430,
      "liament": 3431,
      "Ġpromise": 3432,
      "uation": 3433,
      "erm": 3434,
      "acing": 3435,
      "AK": 3436,
      "Ġallowed": 3437,
      "pecially": 3438,
      "Ġhall": 3439,
      "Ġrace": 3440,
      "Ġsomewhere": 3441,
      "Ġbackground": 3442,
      "ĠState": 3443,
      "Ġnearly": 3444,
      "Ġmix": 3445,
      "cience": 3446,
      "iment": 3447,
      "COU": 3448,
      "Ġsubject": 3449,
      "18": 3450,
      "Take": 3451,
      "say": 3452,
      "utch": 3453,
      "ference": 3454,
      "Ġtall": 3455,
      "ume": 3456,
      "umph": 3457,
      "Ġspoon": 3458,
      "Ġcapital": 3459,
      "ket": 3460,
      "va": 3461,
      "have": 3462,
      "Ġfinal": 3463,
      "Ġcharge": 3464,
      "Ġtoward": 3465,
      "Ġmiles": 3466,
      "Hi": 3467,
      "Ġvers": 3468,
      "ĠTexas": 3469,
      "Ġpolitical": 3470,
      "ghed": 3471,
      "orence": 3472,
      "Ġshut": 3473,
      "Ġweren": 3474,
      "Ġcourt": 3475,
      "Ġtor": 3476,
      "ĠMe": 3477,
      "ĠRed": 3478,
      "ĠRussian": 3479,
      "ploy": 3480,
      "Ġlearned": 3481,
      "ANN": 3482,
      "ĠIndia": 3483,
      "gon": 3484,
      "ĠJo": 3485,
      "cious": 3486,
      "talk": 3487,
      "Ġstars": 3488,
      "Ġeggs": 3489,
      "Ġplayer": 3490,
      "Ġattention": 3491,
      "Ġinformation": 3492,
      "ause": 3493,
      "Ġpeace": 3494,
      "uge": 3495,
      "Ġlim": 3496,
      "Ġwel": 3497,
      "Ġaccident": 3498,
      "ki": 3499,
      "Ġnatur": 3500,
      "ĠBy": 3501,
      "Ġgrass": 3502,
      "Ġshouldn": 3503,
      "under": 3504,
      "roat": 3505,
      "Ġshout": 3506,
      "Ġcentury": 3507,
      "Ġcontrol": 3508,
      "HER": 3509,
      "NG": 3510,
      "gu": 3511,
      "Ġmach": 3512,
      "ases": 3513,
      "osta": 3514,
      "clock": 3515,
      "FA": 3516,
      "Ġlift": 3517,
      "Ġorange": 3518,
      "house": 3519,
      "Ġboo": 3520,
      "ida": 3521,
      "ria": 3522,
      "urity": 3523,
      "raph": 3524,
      "Ġaff": 3525,
      "Ġparts": 3526,
      "Ġgar": 3527,
      "BR": 3528,
      "EW": 3529,
      "ires": 3530,
      "Ġdinos": 3531,
      "Ġdescri": 3532,
      "Sh": 3533,
      "aff": 3534,
      "uses": 3535,
      "Ġplastic": 3536,
      "Ġsticks": 3537,
      "Ġengine": 3538,
      "ĠCaptain": 3539,
      "anor": 3540,
      "uty": 3541,
      "Ġdropped": 3542,
      "Ġflew": 3543,
      "ĠEl": 3544,
      "Ġrespect": 3545,
      "Ġbirds": 3546,
      "ology": 3547,
      ",âĢĻ": 3548,
      "Ġsna": 3549,
      "has": 3550,
      "ased": 3551,
      "medi": 3552,
      "ĠOxford": 3553,
      "ils": 3554,
      "Ġextra": 3555,
      "rect": 3556,
      "ĠTom": 3557,
      "ĠChe": 3558,
      "Ġshowed": 3559,
      "Ġ26": 3560,
      "AND": 3561,
      "Ġinteresting": 3562,
      "Ġpi": 3563,
      "ĠCouncil": 3564,
      "\")": 3565,
      "Ġ*": 3566,
      "Ġincre": 3567,
      "Ġchief": 3568,
      "father": 3569,
      "ords": 3570,
      "Ġfilm": 3571,
      "Br": 3572,
      "HIS": 3573,
      "ĠMa": 3574,
      "GMA": 3575,
      "Ġhost": 3576,
      "ĠSan": 3577,
      "Ġjoined": 3578,
      "Ġfright": 3579,
      "Ġsex": 3580,
      "dog": 3581,
      "Ġrid": 3582,
      "Ġ27": 3583,
      "esta": 3584,
      "inal": 3585,
      "irty": 3586,
      "ffie": 3587,
      "Ġbattle": 3588,
      "olutely": 3589,
      "ere": 3590,
      "eds": 3591,
      "Ġbeach": 3592,
      "Ġrese": 3593,
      "Ġmem": 3594,
      "Ġ28": 3595,
      "obert": 3596,
      "Ġbutterfly": 3597,
      "Ġlaughed": 3598,
      "Ġonto": 3599,
      "ĠAunt": 3600,
      "ĠCla": 3601,
      "eneral": 3602,
      "Ġpopular": 3603,
      "ĠGovern": 3604,
      "light": 3605,
      "Ġdue": 3606,
      "aud": 3607,
      "Ġdirected": 3608,
      "Ġut": 3609,
      "Ġpati": 3610,
      "Ġviol": 3611,
      "Ġfem": 3612,
      "Ġpaid": 3613,
      "antly": 3614,
      "ivil": 3615,
      "ĠMad": 3616,
      "Ġord": 3617,
      "Ġperiod": 3618,
      "ĠSpan": 3619,
      "Ġlengthened": 3620,
      "car": 3621,
      "Ġrepe": 3622,
      "Ġdogg": 3623,
      "arm": 3624,
      "Ġcountries": 3625,
      "Ġearli": 3626,
      "Ġfarm": 3627,
      "Stop": 3628,
      "ĠChan": 3629,
      "Ã¼": 3630,
      "ids": 3631,
      "Ġears": 3632,
      "ppy": 3633,
      "Ġspent": 3634,
      "onday": 3635,
      "plane": 3636,
      "Ġleaves": 3637,
      "Ġwide": 3638,
      "Ġwalking": 3639,
      "Ġneeded": 3640,
      "dered": 3641,
      "Ġstudy": 3642,
      "set": 3643,
      "Ġdar": 3644,
      "omes": 3645,
      "rab": 3646,
      "romer": 3647,
      "UT": 3648,
      "Ġcomb": 3649,
      "Ġchicken": 3650,
      "hand": 3651,
      "Ġreach": 3652,
      "Ġworse": 3653,
      "these": 3654,
      "Ġdestro": 3655,
      "Ġduck": 3656,
      "ston": 3657,
      "Ġconne": 3658,
      "oming": 3659,
      "Ġforth": 3660,
      "Ġrose": 3661,
      "Ġtalked": 3662,
      "liz": 3663,
      "Ġdirect": 3664,
      "Ġï¿½": 3665,
      "itive": 3666,
      "Ġdam": 3667,
      "Ġstage": 3668,
      "ĠAb": 3669,
      "ĠCup": 3670,
      "ĠRob": 3671,
      "ĠAnn": 3672,
      "Ġconcern": 3673,
      "ili": 3674,
      "ĠPort": 3675,
      "aker": 3676,
      "ĠAND": 3677,
      "Ġattempt": 3678,
      "Ġfinally": 3679,
      "Ġsurprise": 3680,
      "Ġdrop": 3681,
      "ours": 3682,
      "Ġsleeping": 3683,
      "conom": 3684,
      "ek": 3685,
      "Ġforce": 3686,
      "ĠCr": 3687,
      "ĠUS": 3688,
      "Ġblank": 3689,
      "Ġturning": 3690,
      "Ġchocol": 3691,
      "ination": 3692,
      "Ġmus": 3693,
      "Ġleader": 3694,
      "Ġcell": 3695,
      "istory": 3696,
      ".âĢĻ": 3697,
      "Ġnecess": 3698,
      "Ġsky": 3699,
      "ĠWhite": 3700,
      "ĠTony": 3701,
      "Ġaged": 3702,
      "bre": 3703,
      "line": 3704,
      "ousin": 3705,
      "Ġfeed": 3706,
      "Ġshare": 3707,
      "Ġcontinued": 3708,
      "ĠFriday": 3709,
      "Ġprofessional": 3710,
      "Ġangry": 3711,
      "ĠMon": 3712,
      "Ġrich": 3713,
      "Ġpray": 3714,
      "Ġcoco": 3715,
      "ĠMarc": 3716,
      "Ġslice": 3717,
      "Ġterrible": 3718,
      "rel": 3719,
      "olf": 3720,
      "Ġoffered": 3721,
      "Ġstories": 3722,
      "ĠColl": 3723,
      "ously": 3724,
      "ĠFlorence": 3725,
      "Cl": 3726,
      "hello": 3727,
      "Ġnone": 3728,
      "three": 3729,
      "icked": 3730,
      "Ġpossib": 3731,
      "reme": 3732,
      "Ġbab": 3733,
      "Ġclosed": 3734,
      "Ġenc": 3735,
      "Ġadded": 3736,
      "By": 3737,
      "af": 3738,
      "Ġhy": 3739,
      "ami": 3740,
      "stit": 3741,
      "ometimes": 3742,
      "Ġenemy": 3743,
      "Ġlots": 3744,
      "Ġbene": 3745,
      "ato": 3746,
      "elve": 3747,
      "Ġbegin": 3748,
      "ĠKingdom": 3749,
      "cast": 3750,
      "ĠJim": 3751,
      "Ġgrad": 3752,
      "ression": 3753,
      "Ġelection": 3754,
      "'?": 3755,
      "Mrs": 3756,
      "ĠBlack": 3757,
      "11": 3758,
      "Ġelect": 3759,
      "Ġfalls": 3760,
      "Ġexcit": 3761,
      "yond": 3762,
      "ĠâĻª": 3763,
      "Ġkey": 3764,
      "Ġsimply": 3765,
      "Ġfavorite": 3766,
      "ville": 3767,
      "rec": 3768,
      "Ġport": 3769,
      "Ġweap": 3770,
      "ĠEast": 3771,
      "ĠON": 3772,
      "aft": 3773,
      "Ġlying": 3774,
      "Ġmeat": 3775,
      "cture": 3776,
      "ĠRiver": 3777,
      "Ġ(\"": 3778,
      "Ġclock": 3779,
      "Ġrabb": 3780,
      "Ġninety": 3781,
      "Ġtype": 3782,
      "Ġslowly": 3783,
      "pin": 3784,
      "yle": 3785,
      "song": 3786,
      "hem": 3787,
      "Ġhero": 3788,
      "Ġshows": 3789,
      "Ġdogs": 3790,
      "Ġbrave": 3791,
      "ilar": 3792,
      "Ġcaused": 3793,
      "ĠHenry": 3794,
      "Ġpush": 3795,
      "Ġspot": 3796,
      "oyal": 3797,
      "Ġcrow": 3798,
      "ĠEuropean": 3799,
      "ĠIT": 3800,
      "Ġwasher": 3801,
      "ĠHung": 3802,
      "Ġrub": 3803,
      "Ġmagnets": 3804,
      "ka": 3805,
      "ses": 3806,
      "ĠStreet": 3807,
      "Ġimmedi": 3808,
      "Ġbasket": 3809,
      "17": 3810,
      "iving": 3811,
      "ĠMart": 3812,
      "Ġprep": 3813,
      "Ġcommand": 3814,
      "Two": 3815,
      "ĠMex": 3816,
      "iles": 3817,
      "Ġremark": 3818,
      "CE": 3819,
      "From": 3820,
      "Ġconvers": 3821,
      "Ġchocolate": 3822,
      "Ġlikes": 3823,
      "Ġserious": 3824,
      "Ġpleasure": 3825,
      "Ġvarious": 3826,
      "Ġ$": 3827,
      "Ġfighting": 3828,
      "isf": 3829,
      "Ġtower": 3830,
      "Ġ100": 3831,
      "ially": 3832,
      "ĠRam": 3833,
      "Ġvan": 3834,
      "Ġ[?": 3835,
      "Ġstayed": 3836,
      "Would": 3837,
      "Ġpers": 3838,
      "bert": 3839,
      "Ġspeaking": 3840,
      "Ġthinks": 3841,
      "Ġsle": 3842,
      "Ġsinger": 3843,
      "Ġrelations": 3844,
      "Ġowl": 3845,
      "Ġ&": 3846,
      "Ġfresh": 3847,
      "Ġpal": 3848,
      "Ġprocess": 3849,
      "Ġindust": 3850,
      "razy": 3851,
      "burg": 3852,
      "ĠMag": 3853,
      "Ġcab": 3854,
      "Ġways": 3855,
      "ĠReg": 3856,
      "van": 3857,
      "Ġaut": 3858,
      "Ġblow": 3859,
      "God": 3860,
      "Ġmarket": 3861,
      "ration": 3862,
      "ĠCor": 3863,
      "bles": 3864,
      "ĠLady": 3865,
      "Ġspring": 3866,
      "Ġthanks": 3867,
      "ival": 3868,
      "Ġap": 3869,
      "rael": 3870,
      "ĠPat": 3871,
      "Ġtrad": 3872,
      "Ġ2018": 3873,
      "Ġlaughs": 3874,
      "ĠGrand": 3875,
      "omas": 3876,
      "ĠFather": 3877,
      "ĠSte": 3878,
      "Ġsoldiers": 3879,
      "Ġdry": 3880,
      "ĠDem": 3881,
      "These": 3882,
      "Ġscar": 3883,
      "Ġbreath": 3884,
      "erve": 3885,
      "Ġhide": 3886,
      "ĠDolly": 3887,
      "Ġsinging": 3888,
      "Ġofficer": 3889,
      "Ġcos": 3890,
      "ashed": 3891,
      "ĠAlex": 3892,
      "soft": 3893,
      "Ġcomput": 3894,
      "De": 3895,
      "amps": 3896,
      "Ġ29": 3897,
      "CHAP": 3898,
      "Ġtitle": 3899,
      "SS": 3900,
      "inary": 3901,
      "Ġmir": 3902,
      "nope": 3903,
      "ĠCourt": 3904,
      "Ġupstairs": 3905,
      "ĠKe": 3906,
      "Ġespecially": 3907,
      "Ġbite": 3908,
      "Ġrole": 3909,
      "Ġdressed": 3910,
      "Paul": 3911,
      "fin": 3912,
      "Ġiron": 3913,
      "Ġbud": 3914,
      "lect": 3915,
      "Ġtech": 3916,
      "ĠLeague": 3917,
      "CHAPTER": 3918,
      "Ġsocial": 3919,
      "Ġthreat": 3920,
      "Ġobs": 3921,
      "Ġtelephone": 3922,
      "Ġhouses": 3923,
      "Ar": 3924,
      "dd": 3925,
      "pret": 3926,
      "writ": 3927,
      "Ġpun": 3928,
      "Ġinfl": 3929,
      "andy": 3930,
      "Ġspirit": 3931,
      "four": 3932,
      "Ġlikely": 3933,
      "rawber": 3934,
      "Even": 3935,
      "Ġmass": 3936,
      "ooper": 3937,
      "ĠMonday": 3938,
      "ural": 3939,
      "ĠJames": 3940,
      "mag": 3941,
      "Ġphys": 3942,
      "Ġwash": 3943,
      "Ġexist": 3944,
      "Ġenv": 3945,
      "Ġteeth": 3946,
      "rief": 3947,
      "Ġestab": 3948,
      "ashington": 3949,
      "Ġexclaimed": 3950,
      "Ġisland": 3951,
      "ĠMass": 3952,
      "uhuh": 3953,
      "ĠĠĠĠĠĠ": 3954,
      "Ġamaz": 3955,
      "Ġdollars": 3956,
      "Ġfat": 3957,
      "Ġallow": 3958,
      "ĠLittle": 3959,
      "Ġexec": 3960,
      "Ġstone": 3961,
      "!'": 3962,
      "oly": 3963,
      "Ã¶": 3964,
      "Ġnorm": 3965,
      "ĠMichael": 3966,
      "iance": 3967,
      "Ġcommun": 3968,
      "Ġsoftly": 3969,
      "Ġwelcome": 3970,
      "ok": 3971,
      "pha": 3972,
      "sure": 3973,
      "ĠAnt": 3974,
      "ĠNesta": 3975,
      "Ġspread": 3976,
      "aps": 3977,
      "Ġfingers": 3978,
      "please": 3979,
      "Ġsuff": 3980,
      "Ġcrack": 3981,
      "Ġlawyer": 3982,
      "Ġsmile": 3983,
      "Ġdate": 3984,
      "oted": 3985,
      "ĠPal": 3986,
      "Ġplays": 3987,
      "Ġguard": 3988,
      "Ġcompletely": 3989,
      "eat": 3990,
      "host": 3991,
      "ergy": 3992,
      "ĠGood": 3993,
      "Ġdifference": 3994,
      "Ġballs": 3995,
      "Ġchim": 3996,
      "Ġfamous": 3997,
      "Ġspoken": 3998,
      "isc": 3999,
      "Ġbeyond": 4000,
      "Ġrights": 4001,
      "ashion": 4002,
      "ĠHowever": 4003,
      "Really": 4004,
      "ram": 4005,
      "ĠBel": 4006,
      "ĠUncle": 4007,
      "ĠAre": 4008,
      "Ġbrain": 4009,
      "itor": 4010,
      "Ġthroat": 4011,
      "ĠBrian": 4012,
      "ustom": 4013,
      "Ġrefer": 4014,
      "Ġinclude": 4015,
      "those": 4016,
      "ples": 4017,
      "lor": 4018,
      "icle": 4019,
      "ĠFrom": 4020,
      "ĠEn": 4021,
      "Ġarrest": 4022,
      "Ġslight": 4023,
      "Ġvictim": 4024,
      "Ġwet": 4025,
      "ĠMed": 4026,
      "ourney": 4027,
      "Ġalthough": 4028,
      "oughs": 4029,
      "Ġfalling": 4030,
      "Ġentered": 4031,
      "Ġpurp": 4032,
      "Ġrule": 4033,
      "bu": 4034,
      "met": 4035,
      "Ġris": 4036,
      "ighs": 4037,
      "ography": 4038,
      "rican": 4039,
      "aine": 4040,
      "ĠLi": 4041,
      "ĠHey": 4042,
      "Ġbroad": 4043,
      "ĠFraser": 4044,
      "asion": 4045,
      "ĠSal": 4046,
      "ila": 4047,
      "apers": 4048,
      "ĠParis": 4049,
      "Ġepis": 4050,
      "Ġtick": 4051,
      "Ġsearch": 4052,
      "ĠPet": 4053,
      "Ġ2012": 4054,
      "Ġrev": 4055,
      "Ġsepar": 4056,
      "ĠDutch": 4057,
      "ĠEX": 4058,
      "ĠEffie": 4059,
      "Ġraised": 4060,
      "cy": 4061,
      "arr": 4062,
      "ĠBo": 4063,
      "ĠHigh": 4064,
      "Ġ2023": 4065,
      "Ġevidence": 4066,
      "Ġwinter": 4067,
      "remember": 4068,
      "tr": 4069,
      "Ġgall": 4070,
      "ĠII": 4071,
      "ĠMor": 4072,
      "ĠWashington": 4073,
      "Ġdeg": 4074,
      "Ġ2014": 4075,
      "umphrey": 4076,
      "gigg": 4077,
      "Ġpublished": 4078,
      "Ġide": 4079,
      "ables": 4080,
      "Ġpicked": 4081,
      "ironment": 4082,
      "Ġhun": 4083,
      "Ġproject": 4084,
      "Ġ2011": 4085,
      "Does": 4086,
      "Ġrespons": 4087,
      "wow": 4088,
      "wise": 4089,
      "Ġver": 4090,
      "ooth": 4091,
      "ĠSam": 4092,
      "Ġinvolved": 4093,
      "Ġintro": 4094,
      "holds": 4095,
      "Ġmurder": 4096,
      "hum": 4097,
      "Ġcrazy": 4098,
      "Ġeast": 4099,
      "ĠHall": 4100,
      "ĠLet": 4101,
      "make": 4102,
      "wich": 4103,
      "wanna": 4104,
      "aining": 4105,
      "ession": 4106,
      "ĠLaw": 4107,
      "Ġvis": 4108,
      "Ġairplane": 4109,
      "ĠSmith": 4110,
      "AU": 4111,
      "orts": 4112,
      "Ġjoin": 4113,
      "Ġarrived": 4114,
      "Pl": 4115,
      "uk": 4116,
      "Ġkitty": 4117,
      "herry": 4118,
      "Ġ()": 4119,
      "ĠCanada": 4120,
      "Ġannounced": 4121,
      "Ġden": 4122,
      "asure": 4123,
      "Ġasleep": 4124,
      "Ġturns": 4125,
      "ĠScot": 4126,
      "pes": 4127,
      "Ġsum": 4128,
      "ĠSup": 4129,
      "ĠJew": 4130,
      "Ġlistening": 4131,
      "Ġelephant": 4132,
      "baby": 4133,
      "ĠSch": 4134,
      "aret": 4135,
      "John": 4136,
      "bing": 4137,
      "lie": 4138,
      "Ġcute": 4139,
      "Ġdriving": 4140,
      "Her": 4141,
      "aven": 4142,
      "Ġdeter": 4143,
      "eless": 4144,
      "Ġhappening": 4145,
      "Ġdirector": 4146,
      "Ġnon": 4147,
      "abeth": 4148,
      "ĠAustralia": 4149,
      "ĠLouis": 4150,
      "lam": 4151,
      "Ġscient": 4152,
      "onounced": 4153,
      "erg": 4154,
      "Ġsposta": 4155,
      "--\"": 4156,
      "ĠEleanor": 4157,
      "rank": 4158,
      "Ġpocket": 4159,
      "Ġbelow": 4160,
      "Ġmilitary": 4161,
      "Ġmessage": 4162,
      "Give": 4163,
      "Ġtaught": 4164,
      "Ġcounty": 4165,
      "Ġgives": 4166,
      "Ġterm": 4167,
      "Ġmetal": 4168,
      "Listen": 4169,
      "Ġident": 4170,
      "Ġwise": 4171,
      "ĠHere": 4172,
      "Ġended": 4173,
      "razil": 4174,
      "Ġprivate": 4175,
      "pro": 4176,
      "vies": 4177,
      "erved": 4178,
      "Ġhey": 4179,
      "Ġcocoon": 4180,
      "15": 4181,
      "uz": 4182,
      "Ġpet": 4183,
      "Ġsimple": 4184,
      "Ġtears": 4185,
      "Ġtiger": 4186,
      "ites": 4187,
      "ĠBob": 4188,
      "Ġhigher": 4189,
      "LY": 4190,
      "ux": 4191,
      "ota": 4192,
      "Ġstom": 4193,
      "ĠBE": 4194,
      "Ġtwelve": 4195,
      "Ġdelic": 4196,
      "Ã³": 4197,
      "Ġfool": 4198,
      "Ġjoy": 4199,
      "ption": 4200,
      "Ġinternational": 4201,
      "ocrat": 4202,
      "Ġwoods": 4203,
      "ĠParliament": 4204,
      "from": 4205,
      "gie": 4206,
      "Ġlines": 4207,
      "asons": 4208,
      "antic": 4209,
      "Ġjourney": 4210,
      "Ġconside": 4211,
      "Ġhasn": 4212,
      "Ġolder": 4213,
      "Ġladies": 4214,
      "Ġconsidered": 4215,
      "Ġbound": 4216,
      "Ġlaid": 4217,
      "ĠIre": 4218,
      "Ġoffer": 4219,
      "Ġ2013": 4220,
      "Ġaction": 4221,
      "ĠIsrael": 4222,
      "Ġinterested": 4223,
      "Bro": 4224,
      "bet": 4225,
      "ja": 4226,
      "ales": 4227,
      "looking": 4228,
      "atives": 4229,
      "Ġmountain": 4230,
      "Ġnatural": 4231,
      "Ġearlier": 4232,
      "Per": 4233,
      "arly": 4234,
      "Ġexam": 4235,
      "gypt": 4236,
      "12": 4237,
      "bour": 4238,
      "Ġï¿½ï¿½ï¿½ï¿½": 4239,
      "Ġbill": 4240,
      "Ġanywhere": 4241,
      "Ġbelieved": 4242,
      "keep": 4243,
      "Ġund": 4244,
      "abel": 4245,
      "Ġmanage": 4246,
      "Ġmovies": 4247,
      "Ġstarting": 4248,
      "Ġsatisf": 4249,
      "ban": 4250,
      "every": 4251,
      "Ġwag": 4252,
      "Ġyyy": 4253,
      "osing": 4254,
      "Ġfounded": 4255,
      "Ġchoice": 4256,
      "Pe": 4257,
      "ĠItalian": 4258,
      "Which": 4259,
      "GHT": 4260,
      "ari": 4261,
      "ĠMil": 4262,
      "ails": 4263,
      "Ġmagic": 4264,
      "ursday": 4265,
      "Ġmotor": 4266,
      "Ġconversation": 4267,
      "!âĢĿ": 4268,
      "Our": 4269,
      "gent": 4270,
      "Ġpic": 4271,
      "ĠMic": 4272,
      "Nothing": 4273,
      "Ġemploy": 4274,
      "Ġsoul": 4275,
      "ushing": 4276,
      "Ġawful": 4277,
      "Ġeducation": 4278,
      "bes": 4279,
      "Ġmm": 4280,
      "Ġyell": 4281,
      "ros": 4282,
      "elle": 4283,
      "ĠPen": 4284,
      "ĠST": 4285,
      "Ġsmell": 4286,
      "Ġactor": 4287,
      "gged": 4288,
      "30": 4289,
      "Was": 4290,
      "Ġmer": 4291,
      "Ġnurse": 4292,
      "Ġstairs": 4293,
      "Ġsail": 4294,
      "Ġsurv": 4295,
      "ointed": 4296,
      "ĠChristian": 4297,
      "Ġtend": 4298,
      "Ġwww": 4299,
      "Ġmouse": 4300,
      "aded": 4301,
      "ĠRobert": 4302,
      "Ġscream": 4303,
      "Ġtaste": 4304,
      "Mother": 4305,
      "Ġpath": 4306,
      "ĠBrazil": 4307,
      "ĠFrank": 4308,
      "ĠQu": 4309,
      "Ġhonest": 4310,
      "Ġfaith": 4311,
      "Very": 4312,
      "mar": 4313,
      "Ġinj": 4314,
      "ĠHumphrey": 4315,
      "ciety": 4316,
      "Ġafterwards": 4317,
      "Ġterms": 4318,
      "Ġninet": 4319,
      "ulf": 4320,
      "Ġplaced": 4321,
      "Ġhurry": 4322,
      "Ġfault": 4323,
      "Ġswimming": 4324,
      "ĠMer": 4325,
      "Ġsituation": 4326,
      "ĠRepublic": 4327,
      "ST": 4328,
      "itude": 4329,
      "Ġcovered": 4330,
      "ednes": 4331,
      "ĠRod": 4332,
      "acks": 4333,
      "thern": 4334,
      "Ġclaim": 4335,
      "Ġnumbers": 4336,
      "ĠPrince": 4337,
      "ĠCharles": 4338,
      "ednesday": 4339,
      "KEN": 4340,
      "tape": 4341,
      "Ġdrew": 4342,
      "ads": 4343,
      "ĠMel": 4344,
      "ella": 4345,
      "Ġamount": 4346,
      "Ġwheel": 4347,
      "lizabeth": 4348,
      "IR": 4349,
      "jo": 4350,
      "Ġspee": 4351,
      "Ġshowing": 4352,
      "Ġfourth": 4353,
      "Ġdistance": 4354,
      "Ġthee": 4355,
      "Ġnote": 4356,
      "ĠScott": 4357,
      "Sir": 4358,
      "lim": 4359,
      "Ġeff": 4360,
      "ishop": 4361,
      "Ġsettle": 4362,
      "Ġlocated": 4363,
      "oved": 4364,
      "arrow": 4365,
      "lebr": 4366,
      "Ġeconom": 4367,
      "ĠWomen": 4368,
      "olt": 4369,
      "ongress": 4370,
      "Ġmachine": 4371,
      "Ġdinosaur": 4372,
      "call": 4373,
      "esus": 4374,
      "Ġhuge": 4375,
      "vere": 4376,
      "Ġthrew": 4377,
      "Ġbye": 4378,
      "looks": 4379,
      "Ġexpected": 4380,
      "Pro": 4381,
      "ĠME": 4382,
      "cean": 4383,
      "ĠPri": 4384,
      "ĠGeneral": 4385,
      "Ġagreed": 4386,
      "Ġregard": 4387,
      "Ġbull": 4388,
      "Ġcamer": 4389,
      "Ġcivil": 4390,
      "Ġpleased": 4391,
      "atter": 4392,
      "Ġnature": 4393,
      "ĠCome": 4394,
      "ĠWho": 4395,
      "Ġscr": 4396,
      "ĠUnion": 4397,
      "Ġaddress": 4398,
      "Ġsimilar": 4399,
      "Ġopport": 4400,
      "ĠOlympics": 4401,
      "orks": 4402,
      "vey": 4403,
      "ĠTV": 4404,
      "roll": 4405,
      "urt": 4406,
      "atic": 4407,
      "uckles": 4408,
      "Ġmissing": 4409,
      "Ġmissed": 4410,
      "Aye": 4411,
      "Ke": 4412,
      "big": 4413,
      "Ġsens": 4414,
      "Ġpill": 4415,
      "uset": 4416,
      "Ġskin": 4417,
      "omp": 4418,
      "ĠCromer": 4419,
      "ĠOkay": 4420,
      "Ġcommunity": 4421,
      "whining": 4422,
      "Ġtraining": 4423,
      "Ġgentleman": 4424,
      "Excuse": 4425,
      "ourage": 4426,
      "Ġcrowd": 4427,
      "Ġtone": 4428,
      "Ġaward": 4429,
      "asc": 4430,
      "Ġplain": 4431,
      "Ġsett": 4432,
      "Tr": 4433,
      "reys": 4434,
      "Ġdread": 4435,
      "Ġagree": 4436,
      "ĠYour": 4437,
      "ĠChurch": 4438,
      "uesday": 4439,
      "Ġimmediately": 4440,
      "**": 4441,
      "Ġsuit": 4442,
      "Ġ(;": 4443,
      "ossible": 4444,
      "Ġseventy": 4445,
      "giggles": 4446,
      "ingly": 4447,
      "arian": 4448,
      "ĠMal": 4449,
      "Ġcalls": 4450,
      "Ġmistake": 4451,
      "Ġrabbit": 4452,
      "ĠSen": 4453,
      "Ġhadn": 4454,
      "ago": 4455,
      "Ġmovement": 4456,
      "Ġrecorder": 4457,
      "Ġwatched": 4458,
      "AB": 4459,
      "low": 4460,
      "high": 4461,
      "sm": 4462,
      "try": 4463,
      "Ġsize": 4464,
      "llen": 4465,
      "uts": 4466,
      "enced": 4467,
      "Dr": 4468,
      "ais": 4469,
      "five": 4470,
      "real": 4471,
      "ĠSummer": 4472,
      "outher": 4473,
      "Ġnotice": 4474,
      "Ġmanner": 4475,
      "Ġ2010": 4476,
      "ledge": 4477,
      "Ġexcited": 4478,
      "Ġwearing": 4479,
      "Ġinvestig": 4480,
      "ĠUrsula": 4481,
      "Se": 4482,
      "log": 4483,
      "vi": 4484,
      "hered": 4485,
      "ĠGO": 4486,
      "Ġgrown": 4487,
      "achuset": 4488,
      "itan": 4489,
      "Ġfre": 4490,
      "Ġpair": 4491,
      "ache": 4492,
      "Ġur": 4493,
      "ANT": 4494,
      "achusetts": 4495,
      "Dad": 4496,
      "book": 4497,
      "ators": 4498,
      "ĠRos": 4499,
      "ĠJose": 4500,
      "Ġfilled": 4501,
      "hest": 4502,
      "inct": 4503,
      "Ġvote": 4504,
      "Ġremem": 4505,
      "ials": 4506,
      "atoes": 4507,
      "Ġnap": 4508,
      "ĠAc": 4509,
      "Ġshad": 4510,
      "Ġcollege": 4511,
      "Ġimagine": 4512,
      "Ġdancing": 4513,
      "sociation": 4514,
      "Ġstran": 4515,
      "ĠRo": 4516,
      "Ġsmart": 4517,
      "Ġsongs": 4518,
      "Ġstreng": 4519,
      "Ġproduced": 4520,
      "da": 4521,
      "Ġcart": 4522,
      "Ġtherefore": 4523,
      "First": 4524,
      "nie": 4525,
      "Ġwest": 4526,
      "Ġdig": 4527,
      "vell": 4528,
      "ĠBert": 4529,
      "elly": 4530,
      "umber": 4531,
      "olic": 4532,
      "bered": 4533,
      "Ġcapt": 4534,
      "Ġassist": 4535,
      "Ġdiscovered": 4536,
      "Ġspeed": 4537,
      "outhern": 4538,
      "14": 4539,
      "ien": 4540,
      "mel": 4541,
      "ĠRome": 4542,
      "Ġdise": 4543,
      "Ġteach": 4544,
      "www": 4545,
      "Ġflying": 4546,
      "ĠMarcia": 4547,
      "mommy": 4548,
      "Ġbal": 4549,
      "ults": 4550,
      "Ġcolors": 4551,
      "Ġstudied": 4552,
      "Ġrocket": 4553,
      "Ġoriginal": 4554,
      "cis": 4555,
      "Ġfol": 4556,
      "Ġbridge": 4557,
      "Ġresult": 4558,
      "Ġbeside": 4559,
      "ini": 4560,
      "using": 4561,
      "hips": 4562,
      "Ġspl": 4563,
      "action": 4564,
      "avis": 4565,
      "Ġknife": 4566,
      "ĠSpanish": 4567,
      "Daddy": 4568,
      "down": 4569,
      "Ġ!": 4570,
      "asy": 4571,
      "ĠMac": 4572,
      "itely": 4573,
      "rance": 4574,
      "Ġdecision": 4575,
      "Ġsentence": 4576,
      "Ġlanguages": 4577,
      "ĠPeople": 4578,
      "Ġquarter": 4579,
      "ĠMassachusetts": 4580,
      "oups": 4581,
      "ĠCamp": 4582,
      "ĠKitty": 4583,
      "Ġregular": 4584,
      "Ġhonor": 4585,
      "Ġcloser": 4586,
      "History": 4587,
      "Sure": 4588,
      "zen": 4589,
      "anda": 4590,
      "ĠDep": 4591,
      "ĠLat": 4592,
      "ĠJoe": 4593,
      "cks": 4594,
      "ĠOK": 4595,
      "Ġturtle": 4596,
      "16": 4597,
      "Ġcousin": 4598,
      "Ġpink": 4599,
      "ĠTri": 4600,
      "andra": 4601,
      "Ġdebut": 4602,
      "ĠGold": 4603,
      "ittee": 4604,
      "Ġmedic": 4605,
      "Ġchimney": 4606,
      "takes": 4607,
      "ĠBat": 4608,
      "oph": 4609,
      "Ġlargest": 4610,
      "gl": 4611,
      "stop": 4612,
      "ĠWhere": 4613,
      "ights": 4614,
      "ĠEr": 4615,
      "Ġunless": 4616,
      "ivid": 4617,
      "Ġhardly": 4618,
      "Ġfavour": 4619,
      "Ġshirt": 4620,
      "ĠJer": 4621,
      "ELL": 4622,
      "ĠThomas": 4623,
      "Ġdangerous": 4624,
      "Miss": 4625,
      "HING": 4626,
      "Ġemb": 4627,
      "Ġdeli": 4628,
      "Ġfeat": 4629,
      "Ġhistor": 4630,
      "ĠRussia": 4631,
      "Ġzoo": 4632,
      "Ġlength": 4633,
      "Ġpicnic": 4634,
      "itzer": 4635,
      "Ġcult": 4636,
      "ĠWood": 4637,
      "anced": 4638,
      "Ġindepend": 4639,
      "Ġcorrect": 4640,
      "ba": 4641,
      "vious": 4642,
      "Ġcoun": 4643,
      "ĠFox": 4644,
      "Ġcondu": 4645,
      "usion": 4646,
      "ĠDist": 4647,
      "oday": 4648,
      "ĠArmy": 4649,
      "Ġexperience": 4650,
      "back": 4651,
      "hall": 4652,
      "Ġplant": 4653,
      "Ġmonkey": 4654,
      "Ġpromised": 4655,
      "Ġsquare": 4656,
      "Ġcastle": 4657,
      "ita": 4658,
      "Ġdirty": 4659,
      "Ġthus": 4660,
      "Ġstock": 4661,
      "elp": 4662,
      "Ġworried": 4663,
      "ensus": 4664,
      "Ġsurprised": 4665,
      "eer": 4666,
      "ij": 4667,
      "viet": 4668,
      "Ġhid": 4669,
      "Ġmeaning": 4670,
      "ĠThursday": 4671,
      "Marky": 4672,
      "Ġnet": 4673,
      "ify": 4674,
      "Ġsaved": 4675,
      "Ġtwice": 4676,
      "mpion": 4677,
      "Ġbrothers": 4678,
      "Ġcelebr": 4679,
      "Ġtotal": 4680,
      "ois": 4681,
      "inger": 4682,
      "ĠEgypt": 4683,
      "Ġpicks": 4684,
      "Ġimpro": 4685,
      "Ġparticularly": 4686,
      "ournal": 4687,
      "Man": 4688,
      "Ġaud": 4689,
      "Ġlap": 4690,
      "Ġneither": 4691,
      "Ġdeb": 4692,
      "Ġcoach": 4693,
      "ugo": 4694,
      "Ġstrugg": 4695,
      "rica": 4696,
      "Ġartist": 4697,
      "Ġtemper": 4698,
      "pa": 4699,
      "upp": 4700,
      "Ġtou": 4701,
      "eta": 4702,
      "Ġgods": 4703,
      "Ġoppos": 4704,
      "cellent": 4705,
      "13": 4706,
      "only": 4707,
      "Ġpushed": 4708,
      "ĠAward": 4709,
      "ellig": 4710,
      "Ġusual": 4711,
      "Ġfemale": 4712,
      "dad": 4713,
      "Ġmult": 4714,
      "Ġareas": 4715,
      "inda": 4716,
      "Ġcoat": 4717,
      "Ġcheer": 4718,
      "Ġescape": 4719,
      "Le": 4720,
      ".,": 4721,
      "Ġplenty": 4722,
      "Ġexplain": 4723,
      "Ġdefin": 4724,
      "ĠClaus": 4725,
      "Ġinflu": 4726,
      "cut": 4727,
      "ĠLab": 4728,
      "Ġearn": 4729,
      "ÃŃs": 4730,
      "Ma": 4731,
      "bur": 4732,
      "vert": 4733,
      "Ġneat": 4734,
      "ĠWednesday": 4735,
      "Ġ190": 4736,
      "iana": 4737,
      "50": 4738,
      "Ġhill": 4739,
      "ĠJul": 4740,
      "Ġspeech": 4741,
      "Gu": 4742,
      "show": 4743,
      "icated": 4744,
      "alley": 4745,
      "ĠSpain": 4746,
      "Ġpurpose": 4747,
      "Ġcouch": 4748,
      "Ġappre": 4749,
      "Ġruns": 4750,
      "inese": 4751,
      "Ġcalm": 4752,
      "sings": 4753,
      "onse": 4754,
      "Ġble": 4755,
      "Ġeager": 4756,
      "Ġgroups": 4757,
      "Ġspecies": 4758,
      "Ġsharp": 4759,
      "iant": 4760,
      "Ġduty": 4761,
      "ĠAir": 4762,
      "chie": 4763,
      "ĠRec": 4764,
      "Ġrough": 4765,
      "Ġbless": 4766,
      "Ġpersonal": 4767,
      "Ġabsolutely": 4768,
      "Ġlucky": 4769,
      "200": 4770,
      "hod": 4771,
      "Ġtax": 4772,
      "Ġmater": 4773,
      "Ġinqu": 4774,
      "Ġhell": 4775,
      "Ġbeauty": 4776,
      "Ġnineteen": 4777,
      "aign": 4778,
      "oid": 4779,
      "Ġwake": 4780,
      "Ġfirm": 4781,
      "enth": 4782,
      "ferent": 4783,
      "Ġrap": 4784,
      "Ġobviously": 4785,
      "Ġtravel": 4786,
      "Ġbathroom": 4787,
      "Ġempty": 4788,
      "Ġcomputer": 4789,
      "Ġwound": 4790,
      "ĠCath": 4791,
      "ĠDid": 4792,
      "Ġdrinking": 4793,
      "Ġet": 4794,
      "Ġstrawber": 4795,
      "Ġlips": 4796,
      "Ġtrip": 4797,
      "Only": 4798,
      "Ġsuspect": 4799,
      "Ġradio": 4800,
      "Ġdarling": 4801,
      "ocratic": 4802,
      "CT": 4803,
      "Could": 4804,
      "SE": 4805,
      "Ġfro": 4806,
      "ĠBer": 4807,
      "ĠDO": 4808,
      "ĠDis": 4809,
      "Ġroof": 4810,
      "Ġshoot": 4811,
      "Ġclearly": 4812,
      "Ġquietly": 4813,
      "Ġresearch": 4814,
      "ship": 4815,
      "Ġtap": 4816,
      "oms": 4817,
      "Ġdoin": 4818,
      "ĠDes": 4819,
      "Ġimpossible": 4820,
      "Ġeasily": 4821,
      "Ġwriter": 4822,
      "EXP": 4823,
      "Um": 4824,
      "rid": 4825,
      "ograph": 4826,
      "ENT": 4827,
      "Sp": 4828,
      "rough": 4829,
      "ĠTuesday": 4830,
      "ĠBet": 4831,
      "ĠDuke": 4832,
      "ĠFred": 4833,
      "Ġpulled": 4834,
      "cul": 4835,
      "ĠBoy": 4836,
      "Ġelected": 4837,
      "ĠĠĠĠĠĠĠĠĠĠĠĠĠĠĠĠĠĠĠĠĠĠĠĠĠĠĠĠĠĠĠĠ": 4838,
      "Ġepisode": 4839,
      "could": 4840,
      "little": 4841,
      "vince": 4842,
      "Ġwit": 4843,
      "oured": 4844,
      "Ġweather": 4845,
      "ĠBill": 4846,
      "Am": 4847,
      "after": 4848,
      "first": 4849,
      "Ġsour": 4850,
      "Ġdouble": 4851,
      "urry": 4852,
      "iece": 4853,
      "Ġpercent": 4854,
      "Ġwalks": 4855,
      "Ġcontinue": 4856,
      "Ġholiday": 4857,
      "cat": 4858,
      "ker": 4859,
      "lla": 4860,
      "Ġpool": 4861,
      "ĠMo": 4862,
      "ĠGreen": 4863,
      "Ġscene": 4864,
      "softly": 4865,
      "Nina": 4866,
      "cake": 4867,
      "ns": 4868,
      "net": 4869,
      "ners": 4870,
      "Ġcouncil": 4871,
      "oring": 4872,
      "Ġgate": 4873,
      "ively": 4874,
      "Ġtrick": 4875,
      "Ġconstruction": 4876,
      "Ġharm": 4877,
      "Ġdistribut": 4878,
      "Ġneighbor": 4879,
      "Ġjudge": 4880,
      "Ġloss": 4881,
      "ĠFirst": 4882,
      "Ġstruck": 4883,
      "Ġdecide": 4884,
      "Ġsandwich": 4885,
      "ishes": 4886,
      "cely": 4887,
      "Ġmonster": 4888,
      "ĠEarth": 4889,
      "WE": 4890,
      "lig": 4891,
      "leng": 4892,
      "rees": 4893,
      "Ġsoup": 4894,
      "aled": 4895,
      "ste": 4896,
      "cts": 4897,
      "Ġshoo": 4898,
      "Ġshown": 4899,
      "Ġheads": 4900,
      "Ġstudents": 4901,
      "_,": 4902,
      "Ġfought": 4903,
      "isted": 4904,
      "Ġtells": 4905,
      "ĠInternational": 4906,
      "Ġsecurity": 4907,
      "itzerland": 4908,
      "Ã¨": 4909,
      "ona": 4910,
      "Ġpour": 4911,
      "Ġliter": 4912,
      "oma": 4913,
      "Ġflower": 4914,
      "Ġcrime": 4915,
      "Ġperfectly": 4916,
      "Ġblanket": 4917,
      "Gr": 4918,
      "bury": 4919,
      "coughs": 4920,
      "Ġtong": 4921,
      "ching": 4922,
      "cend": 4923,
      "Ġaccording": 4924,
      "ĠSoviet": 4925,
      "Ġoccur": 4926,
      "Ġprincess": 4927,
      "Ġdeclared": 4928,
      "Ġnecessary": 4929,
      "had": 4930,
      "Ġoil": 4931,
      "ava": 4932,
      "Ġfixed": 4933,
      "Ġbowl": 4934,
      "Ġtar": 4935,
      "Ġunc": 4936,
      "Ġcaptain": 4937,
      "Ġpaint": 4938,
      "Ġgentlemen": 4939,
      "ĠSecret": 4940,
      "aches": 4941,
      "Ġexcuse": 4942,
      "whispers": 4943,
      "Ġanxious": 4944,
      "SI": 4945,
      "ĠMike": 4946,
      "Ġrate": 4947,
      "cky": 4948,
      "Ġgreatest": 4949,
      "Ġkeeping": 4950,
      "Ġdemand": 4951,
      "Ġmic": 4952,
      "aries": 4953,
      "ĠWil": 4954,
      "ĠRose": 4955,
      "ĠLuc": 4956,
      "ĠElizabeth": 4957,
      "ĠBrown": 4958,
      "Ġdesp": 4959,
      "Ġoccup": 4960,
      "ĠSwitzerland": 4961,
      "Ġdefend": 4962,
      "Sis": 4963,
      "ĠSer": 4964,
      "Ġfruit": 4965,
      "Ġholds": 4966,
      "Ġdevelopment": 4967,
      "Ġenvironment": 4968,
      "Ġfashion": 4969,
      "hoe": 4970,
      "Ġdisco": 4971,
      "?'": 4972,
      "Ġhotel": 4973,
      "Ġfrightened": 4974,
      "Car": 4975,
      "tles": 4976,
      "nods": 4977,
      "esty": 4978,
      "Ġarrow": 4979,
      "Ġjumped": 4980,
      "Ġcompeted": 4981,
      "ĠAfrican": 4982,
      "Ġavail": 4983,
      "ĠChampionship": 4984,
      "Bl": 4985,
      "tin": 4986,
      "reg": 4987,
      "Ġweak": 4988,
      "ĠLot": 4989,
      "Ġ40": 4990,
      "ĠFrancis": 4991,
      "ĠAldred": 4992,
      "Ġah": 4993,
      "inist": 4994,
      "Ġinf": 4995,
      "adian": 4996,
      "ĠMet": 4997,
      "ĠMus": 4998,
      "Ġchampions": 4999,
      "Ġpleasant": 5000,
      "ique": 5001,
      "loud": 5002,
      "roo": 5003,
      "vis": 5004,
      "Ġtv": 5005,
      "tering": 5006,
      "ĠEric": 5007,
      "Ġcamera": 5008,
      "Ph": 5009,
      "YOU": 5010,
      "fit": 5011,
      "Ġfund": 5012,
      "Ġfoc": 5013,
      "Ġham": 5014,
      "Ġthy": 5015,
      "berg": 5016,
      "Ġappl": 5017,
      "rupt": 5018,
      "Ġpossibly": 5019,
      "Ġopin": 5020,
      "Ġwooden": 5021,
      "gas": 5022,
      "Ġfancy": 5023,
      "Ġdoc": 5024,
      "Ġmanaged": 5025,
      "iction": 5026,
      "Ġscary": 5027,
      "Ġcontact": 5028,
      "appy": 5029,
      "Ġgrave": 5030,
      "really": 5031,
      "Ġvac": 5032,
      "Ġqueen": 5033,
      "Ġcoast": 5034,
      "Ġimm": 5035,
      "Ġcompetition": 5036,
      "ele": 5037,
      "Ġsac": 5038,
      "Ġbi": 5039,
      "Ġcant": 5040,
      "irgin": 5041,
      "Ġmarriage": 5042,
      "Ġ50": 5043,
      "ĠIsland": 5044,
      "Ġcircus": 5045,
      "Ġsusp": 5046,
      "recorder": 5047,
      "Ġscience": 5048,
      "Ġcuri": 5049,
      "Ġcustom": 5050,
      "ĠMont": 5051,
      "ĠDar": 5052,
      "ĠChina": 5053,
      "Ġsilence": 5054,
      "enny": 5055,
      "Ġmeal": 5056,
      "ĠHan": 5057,
      "acket": 5058,
      "ĠLa": 5059,
      "ccording": 5060,
      "Ġcontinues": 5061,
      "mom": 5062,
      "Ġthick": 5063,
      "Ġwilln": 5064,
      "ĠScotland": 5065,
      "Ġdisease": 5066,
      "Care": 5067,
      "Ġcred": 5068,
      "Ġbeha": 5069,
      "Ġenergy": 5070,
      "Ġdishes": 5071,
      "Ġremained": 5072,
      "Ġrail": 5073,
      "Ġleading": 5074,
      "icycle": 5075,
      "Ġir": 5076,
      "Ġtight": 5077,
      "Ġnurs": 5078,
      "ĠEmp": 5079,
      "Ġadvent": 5080,
      "ae": 5081,
      "last": 5082,
      "may": 5083,
      "rig": 5084,
      "Ġchannel": 5085,
      "UST": 5086,
      "Ġdoggie": 5087,
      "water": 5088,
      "Ġpitched": 5089,
      "ĠMabel": 5090,
      "illa": 5091,
      "Ġdeterm": 5092,
      "Ben": 5093,
      "sighs": 5094,
      "Ġnovel": 5095,
      "Ġlibr": 5096,
      "umps": 5097,
      "cip": 5098,
      "Ġnewsp": 5099,
      "Ġacqu": 5100,
      "Ġdolly": 5101,
      "Ġprepared": 5102,
      "Ġrom": 5103,
      "Ġyouth": 5104,
      "imate": 5105,
      "Ġrow": 5106,
      "ĠJud": 5107,
      "Ġattract": 5108,
      "Ġdirection": 5109,
      "Ġestabl": 5110,
      "Ġstrength": 5111,
      "May": 5112,
      "fall": 5113,
      "pet": 5114,
      "heart": 5115,
      "Ġmut": 5116,
      "ala": 5117,
      "ĠMolly": 5118,
      "Ġnoticed": 5119,
      "ilda": 5120,
      "ildred": 5121,
      "Ġcenter": 5122,
      "Ġtow": 5123,
      "Ġcancer": 5124,
      "useum": 5125,
      "aked": 5126,
      "Ġcontract": 5127,
      "Ġgiant": 5128,
      "Ġcentre": 5129,
      "aves": 5130,
      "Ġstret": 5131,
      "ĠTHAT": 5132,
      "ĠDay": 5133,
      "peror": 5134,
      "pens": 5135,
      "Ġseconds": 5136,
      "Eve": 5137,
      "bell": 5138,
      "oves": 5139,
      "rans": 5140,
      "Ġsword": 5141,
      "ederal": 5142,
      "LI": 5143,
      "Ġbang": 5144,
      "Ġstream": 5145,
      "Ġarch": 5146,
      "Ġourselves": 5147,
      "anges": 5148,
      "Ġhelping": 5149,
      "Che": 5150,
      "Ġma": 5151,
      "Ġlower": 5152,
      "ĠCast": 5153,
      "eaks": 5154,
      "Ġremind": 5155,
      "Ġcarefully": 5156,
      "Ġcandy": 5157,
      "known": 5158,
      "ouri": 5159,
      "Ġsides": 5160,
      "lem": 5161,
      "imb": 5162,
      "ĠHE": 5163,
      "Ġ2005": 5164,
      "Ġ2009": 5165,
      "ĠIran": 5166,
      "Ġhi": 5167,
      "otion": 5168,
      "Ġbutton": 5169,
      "Ġshore": 5170,
      "istan": 5171,
      "ĠZara": 5172,
      "Ġpractice": 5173,
      "Ġopportunity": 5174,
      "?]": 5175,
      "gn": 5176,
      "mit": 5177,
      "itation": 5178,
      "Ġgro": 5179,
      "Ġgaz": 5180,
      "Ġhandle": 5181,
      "whoa": 5182,
      "\"]": 5183,
      "wr": 5184,
      "ademy": 5185,
      "Ġsaf": 5186,
      "Ġ2007": 5187,
      "Mhm": 5188,
      "Ġfurn": 5189,
      "aning": 5190,
      "Ġstorm": 5191,
      "outs": 5192,
      "osh": 5193,
      "ĠIts": 5194,
      "Ġ2008": 5195,
      "Ġofficial": 5196,
      "Ġweird": 5197,
      "Ġnea": 5198,
      "Ġformed": 5199,
      "ĠMaster": 5200,
      "ĠHa": 5201,
      "ĠDel": 5202,
      "eman": 5203,
      "Ġdisp": 5204,
      "Ġcrown": 5205,
      "ĠChief": 5206,
      "Ġopening": 5207,
      "Ġplane": 5208,
      "aching": 5209,
      "Ġdriver": 5210,
      "Ġmotion": 5211,
      "ĠAfrica": 5212,
      "Ġboots": 5213,
      "uten": 5214,
      "iring": 5215,
      "Ġprice": 5216,
      "Ġgreater": 5217,
      "Ġfifteen": 5218,
      "ĠJoseph": 5219,
      "kins": 5220,
      "inet": 5221,
      "Ġpan": 5222,
      "ĠTw": 5223,
      "ura": 5224,
      "chuckles": 5225,
      "ĠEvery": 5226,
      "Ġsmiled": 5227,
      "ontin": 5228,
      "Ġ2004": 5229,
      "ĠPrin": 5230,
      "Ġextreme": 5231,
      "Ġsouthw": 5232,
      "hal": 5233,
      "ilies": 5234,
      "Ġshr": 5235,
      "Ġinterview": 5236,
      "Ġcampaign": 5237,
      "----------------": 5238,
      "dr": 5239,
      "face": 5240,
      "isn": 5241,
      "Ġcherry": 5242,
      "Ġlion": 5243,
      "ication": 5244,
      "ĠSus": 5245,
      "ĠCam": 5246,
      "Ġchoose": 5247,
      "Ġlights": 5248,
      "Ġpainting": 5249,
      "Ġsteps": 5250,
      "ĠJapanese": 5251,
      "Act": 5252,
      "gress": 5253,
      "yellow": 5254,
      "Ġwrest": 5255,
      "Ġpin": 5256,
      "ĠGar": 5257,
      "ĠFire": 5258,
      "osc": 5259,
      "Ġmentioned": 5260,
      "Ġmemory": 5261,
      "ĠEXP": 5262,
      "Ġstomach": 5263,
      "Ġappreci": 5264,
      "bly": 5265,
      "Ġbare": 5266,
      "Ġdying": 5267,
      "Ġye": 5268,
      "Ġlog": 5269,
      "etch": 5270,
      "ems": 5271,
      "ĠChinese": 5272,
      "Ġ2006": 5273,
      "ippi": 5274,
      "gen": 5275,
      "athy": 5276,
      "ĠIS": 5277,
      "herlands": 5278,
      "ĠPercy": 5279,
      "ĠIslam": 5280,
      "Ġsoldier": 5281,
      "Ġhanging": 5282,
      "Ġorders": 5283,
      "People": 5284,
      "Ġtries": 5285,
      "Ġboss": 5286,
      "ĠWind": 5287,
      "Ġdownstairs": 5288,
      "Ġkinds": 5289,
      "Ġchanges": 5290,
      "Ġofficers": 5291,
      "ification": 5292,
      "Ġevents": 5293,
      "rooge": 5294,
      "OUR": 5295,
      "Ġmerry": 5296,
      "Ġpig": 5297,
      "lected": 5298,
      "Ġmere": 5299,
      "ĠHER": 5300,
      "ilities": 5301,
      "Ġprevent": 5302,
      "Ġstring": 5303,
      "Ġgrowing": 5304,
      "Ġtongue": 5305,
      "Ġfold": 5306,
      "Ġeld": 5307,
      "kel": 5308,
      "iel": 5309,
      "Ġplans": 5310,
      "Ġphil": 5311,
      "Ġsisters": 5312,
      "ĠJean": 5313,
      "EA": 5314,
      "Never": 5315,
      "ĠCHI": 5316,
      "Ġfra": 5317,
      "ardon": 5318,
      "Ġprim": 5319,
      "Ġmoves": 5320,
      "Ġowned": 5321,
      "ocal": 5322,
      "Ġfallen": 5323,
      "Ġterror": 5324,
      "Ġversion": 5325,
      "IC": 5326,
      "too": 5327,
      "ouds": 5328,
      "Ġsch": 5329,
      "Ġdare": 5330,
      "ĠMinn": 5331,
      "ends": 5332,
      "Ġprint": 5333,
      "Ġactress": 5334,
      "ĠJeffreys": 5335,
      "Ġsettled": 5336,
      "anch": 5337,
      "Ġpapers": 5338,
      "Ġnoble": 5339,
      "Ġnerv": 5340,
      "ĠHugo": 5341,
      "Ġknowing": 5342,
      "Ġfeels": 5343,
      "ealand": 5344,
      "draw": 5345,
      "another": 5346,
      "ĠRes": 5347,
      "Ġrings": 5348,
      "Ġkiller": 5349,
      "box": 5350,
      "Ġresponse": 5351,
      "Ġwings": 5352,
      "Ġlord": 5353,
      "ador": 5354,
      "Ġknowledge": 5355,
      "ĠFOR": 5356,
      "Ġtrade": 5357,
      "ĠZealand": 5358,
      "Ġgolden": 5359,
      "Ġwed": 5360,
      "kend": 5361,
      "Ġflight": 5362,
      "Ġcarrying": 5363,
      "Ġkeeps": 5364,
      "Ġsmaller": 5365,
      "ĠBritain": 5366,
      "VER": 5367,
      "Ġnomin": 5368,
      "ĠTown": 5369,
      "Ġuses": 5370,
      "iano": 5371,
      "Ġblind": 5372,
      "Ġtext": 5373,
      "Ġpoet": 5374,
      "Ġchem": 5375,
      "Ġ2003": 5376,
      "Ġmodern": 5377,
      "bel": 5378,
      "Ġbump": 5379,
      "Ġpound": 5380,
      "ĠSun": 5381,
      "ĠMur": 5382,
      "ĠWestern": 5383,
      "place": 5384,
      "Ġindivid": 5385,
      "199": 5386,
      "Ġteams": 5387,
      "Ġconcerned": 5388,
      "lengthened": 5389,
      "sed": 5390,
      "uf": 5391,
      "cel": 5392,
      "Ġsuc": 5393,
      "ucky": 5394,
      "Ġremain": 5395,
      "Ġtrial": 5396,
      "Ġdreams": 5397,
      "Ġnormal": 5398,
      "ĠSuper": 5399,
      "Ġbrief": 5400,
      "issippi": 5401,
      "izing": 5402,
      "ĠIreland": 5403,
      "melon": 5404,
      "mark": 5405,
      "nothing": 5406,
      "amin": 5407,
      "ops": 5408,
      "ĠTheir": 5409,
      "oston": 5410,
      "Ġqual": 5411,
      "Ġmarry": 5412,
      "ĠAssociation": 5413,
      "Ġeasier": 5414,
      "Ġjoke": 5415,
      "Ġwaited": 5416,
      "Ġrules": 5417,
      "ĠAustrian": 5418,
      "ĠNetherlands": 5419,
      "Ġideas": 5420,
      "lend": 5421,
      "aki": 5422,
      "pering": 5423,
      "Ġcruel": 5424,
      "Ġ1990": 5425,
      "Ġwindows": 5426,
      "fortun": 5427,
      "Ġoccasion": 5428,
      "Ġdrawing": 5429,
      "Ġwhispered": 5430,
      "ĠGreek": 5431,
      "rish": 5432,
      "Ġess": 5433,
      "Ġmail": 5434,
      "asing": 5435,
      "Ġsake": 5436,
      "ĠDra": 5437,
      "ĠBrad": 5438,
      "Ġretired": 5439,
      "Ġfrogs": 5440,
      "Ġfigures": 5441,
      "ĠDistrict": 5442,
      "Ġsucceed": 5443,
      "Ed": 5444,
      "MAL": 5445,
      "Ġemer": 5446,
      "Ġmatches": 5447,
      "Early": 5448,
      "Ġdish": 5449,
      "sequ": 5450,
      "Ġflag": 5451,
      "Ġhelmet": 5452,
      "Ġschools": 5453,
      "Ġswing": 5454,
      "Ġbedroom": 5455,
      "ĠMississippi": 5456,
      "Ġburst": 5457,
      "ĠCollege": 5458,
      "Ġestablished": 5459,
      "OD": 5460,
      "craft": 5461,
      "Ġstro": 5462,
      "Ġuseta": 5463,
      "Ġmostly": 5464,
      "iety": 5465,
      "Ġwheels": 5466,
      "arently": 5467,
      "ĠEmpire": 5468,
      "Ġsafety": 5469,
      "Je": 5470,
      "bon": 5471,
      "while": 5472,
      "ĠServ": 5473,
      "ĠBur": 5474,
      "ĠHol": 5475,
      "Ġworst": 5476,
      "ollip": 5477,
      "avar": 5478,
      "Ġrocks": 5479,
      "Ġwalls": 5480,
      "gt": 5481,
      "run": 5482,
      "yell": 5483,
      "Ġfond": 5484,
      "Ġinno": 5485,
      "Ġ2000": 5486,
      "Ġtalks": 5487,
      "Ġshape": 5488,
      "ĠMaria": 5489,
      "pronounced": 5490,
      "Ġforever": 5491,
      "Ġconstit": 5492,
      "Ġforgotten": 5493,
      "ĠAngela": 5494,
      "oons": 5495,
      "ule": 5496,
      "vo": 5497,
      "ĠHam": 5498,
      "ĠOld": 5499,
      "Ġexecut": 5500,
      "Great": 5501,
      "aun": 5502,
      "ez": 5503,
      "Ġwished": 5504,
      "Ġsen": 5505,
      "ĠMany": 5506,
      "Ġarg": 5507,
      "Ġsigned": 5508,
      "Ġbabies": 5509,
      "ME": 5510,
      "Ġforces": 5511,
      "ĠRoyal": 5512,
      "ĠVery": 5513,
      "Ġyounger": 5514,
      "ĠMissouri": 5515,
      "ĠCanadian": 5516,
      "aura": 5517,
      "Ġmodel": 5518,
      "Fr": 5519,
      "Ġbomb": 5520,
      "nolog": 5521,
      "Ġhug": 5522,
      "rif": 5523,
      "ĠMajor": 5524,
      "Ġmel": 5525,
      "ĠPapa": 5526,
      "ĠRock": 5527,
      "Ġplants": 5528,
      "Ġvot": 5529,
      "Ġwilling": 5530,
      "Ġproceed": 5531,
      "Ġloves": 5532,
      "Ġnuts": 5533,
      "Ġrepeated": 5534,
      "Ġbike": 5535,
      "Ġwaste": 5536,
      "ado": 5537,
      "ĠMat": 5538,
      "Ġupset": 5539,
      "Ġcomed": 5540,
      "Ġattend": 5541,
      "Ġleaders": 5542,
      "Ġpowerful": 5543,
      "ĠSwed": 5544,
      "ĠMexico": 5545,
      "Ind": 5546,
      "PE": 5547,
      "Wow": 5548,
      "onia": 5549,
      "Ġple": 5550,
      "Ġghost": 5551,
      "ĠSk": 5552,
      "Ġant": 5553,
      "ĠFore": 5554,
      "Ġplat": 5555,
      "Ġmanager": 5556,
      "Ġsomethin": 5557,
      "Ġpresents": 5558,
      "ĠFlor": 5559,
      "sych": 5560,
      "Ġrapid": 5561,
      "eed": 5562,
      "fess": 5563,
      "Ġtheory": 5564,
      "usage": 5565,
      "rial": 5566,
      "Ġsociety": 5567,
      "Ġjournal": 5568,
      "olars": 5569,
      "gery": 5570,
      "Ġ2001": 5571,
      "Ġaware": 5572,
      "Ġhighest": 5573,
      "ĠCatholic": 5574,
      "year": 5575,
      "happy": 5576,
      "Ġfaces": 5577,
      "arily": 5578,
      "ĠWAS": 5579,
      "Ġrise": 5580,
      "Ġunion": 5581,
      "Ġavailable": 5582,
      "uan": 5583,
      "Ġbother": 5584,
      "Ġcases": 5585,
      "Ġcensus": 5586,
      "ening": 5587,
      "Ġpurs": 5588,
      "Ġweight": 5589,
      "semb": 5590,
      "stood": 5591,
      "ĠThank": 5592,
      "ĠLos": 5593,
      "Ġpeas": 5594,
      "Ġstrawberries": 5595,
      "HO": 5596,
      "something": 5597,
      "ero": 5598,
      "ĠLee": 5599,
      "Ġclouds": 5600,
      "ĠVal": 5601,
      "Ġfinding": 5602,
      "Ġ31": 5603,
      "Ġeleven": 5604,
      "Ġmedical": 5605,
      "Keep": 5606,
      "Amer": 5607,
      "walk": 5608,
      "Ġho": 5609,
      "ushes": 5610,
      "aming": 5611,
      "ĠCongress": 5612,
      "ĠFin": 5613,
      "arts": 5614,
      "Ġfeelings": 5615,
      "ĠEarl": 5616,
      "Ġreligious": 5617,
      "Ġfal": 5618,
      "icles": 5619,
      "ading": 5620,
      "ĠSim": 5621,
      "Ġordered": 5622,
      "uhoh": 5623,
      "Ġcarriage": 5624,
      "Ġpolicy": 5625,
      "Ġfifth": 5626,
      "ĠGerald": 5627,
      "Three": 5628,
      "Ġstreets": 5629,
      "shall": 5630,
      "Ġtotally": 5631,
      "ĠRobin": 5632,
      "BC": 5633,
      "Got": 5634,
      "mes": 5635,
      "Ġcy": 5636,
      "alt": 5637,
      "Ġparticip": 5638,
      "Ġshoulder": 5639,
      "Ġvoices": 5640,
      "Ġbringing": 5641,
      "Ġpurple": 5642,
      "duced": 5643,
      "Ġutter": 5644,
      "Ġwore": 5645,
      "Ġfac": 5646,
      "ĠDen": 5647,
      "Ġrising": 5648,
      "Ġshock": 5649,
      "going": 5650,
      "ĠEdward": 5651,
      "ological": 5652,
      "Ġdegree": 5653,
      "ION": 5654,
      "oom": 5655,
      "ube": 5656,
      "Ġpages": 5657,
      "Ġheaven": 5658,
      "lear": 5659,
      "Ġnic": 5660,
      "riff": 5661,
      "ĠDi": 5662,
      "ĠFil": 5663,
      "Ġshoe": 5664,
      "ĠKent": 5665,
      "Ġprove": 5666,
      "Ġreported": 5667,
      "ollipop": 5668,
      "AVE": 5669,
      "IGHT": 5670,
      "Ġsite": 5671,
      "Ġgoodness": 5672,
      "places": 5673,
      "Ġneedta": 5674,
      "ansas": 5675,
      "Ġcontent": 5676,
      "ajesty": 5677,
      "ĠWilliams": 5678,
      "ĠAgnes": 5679,
      "rick": 5680,
      "wing": 5681,
      "orse": 5682,
      "Ġinvent": 5683,
      "Ġstates": 5684,
      "ĠPope": 5685,
      "ĠKore": 5686,
      "Ġaffe": 5687,
      "Ġdeveloped": 5688,
      "Ġcondition": 5689,
      "Ġrelationship": 5690,
      "Mama": 5691,
      "ential": 5692,
      "ĠDuring": 5693,
      "Ġsomewhat": 5694,
      "Ġconqu": 5695,
      "Ġrode": 5696,
      "Ġcups": 5697,
      "ĠGuy": 5698,
      "playing": 5699,
      "HERE": 5700,
      "Ġgradu": 5701,
      "Ġted": 5702,
      "ctors": 5703,
      "think": 5704,
      "opher": 5705,
      "Ġfamilies": 5706,
      "Ġevil": 5707,
      "Ġprotest": 5708,
      "Everything": 5709,
      "Ġsuccessful": 5710,
      "ĠSecretary": 5711,
      "tries": 5712,
      "Ġbod": 5713,
      "ena": 5714,
      "Ġpa": 5715,
      "Ġge": 5716,
      "rible": 5717,
      "Ġforced": 5718,
      "asty": 5719,
      "ucking": 5720,
      "Ġsteal": 5721,
      "Ġcomfortable": 5722,
      "ĠDemocratic": 5723,
      "Ġremembered": 5724,
      "Ġmedicine": 5725,
      "Something": 5726,
      "onel": 5727,
      "Ġcities": 5728,
      "Ġfence": 5729,
      "Ġintern": 5730,
      "Ġnarrow": 5731,
      "ĠBoston": 5732,
      "ola": 5733,
      "Ġships": 5734,
      "rences": 5735,
      "zza": 5736,
      "Ġchest": 5737,
      "Ġweekend": 5738,
      "ĠPrime": 5739,
      "Ġaddition": 5740,
      "ĠWalter": 5741,
      "Ġcit": 5742,
      "ications": 5743,
      "acher": 5744,
      "Ġreign": 5745,
      "ĠMount": 5746,
      "ĠMildred": 5747,
      "ĠCO": 5748,
      "thur": 5749,
      "Ġeverywhere": 5750,
      "Ġmagaz": 5751,
      "Ġcentral": 5752,
      "Ġgrandfather": 5753,
      "ĠProvince": 5754,
      "Qu": 5755,
      "Ġmud": 5756,
      "ĠTim": 5757,
      "ols": 5758,
      "Ġbecoming": 5759,
      "ĠAustria": 5760,
      "Ġapolog": 5761,
      "Ġscarcely": 5762,
      "Ġmicro": 5763,
      "zo": 5764,
      "Ġocean": 5765,
      "ĠSaint": 5766,
      "ĠBas": 5767,
      "estival": 5768,
      "Ġtroub": 5769,
      "Ġwondering": 5770,
      "Ġincluded": 5771,
      "Ġcompanies": 5772,
      "Ġreligion": 5773,
      "Ġrisk": 5774,
      "Career": 5775,
      "Char": 5776,
      "friend": 5777,
      "Ġpor": 5778,
      "Ġgift": 5779,
      "hant": 5780,
      "ishment": 5781,
      "Ġminister": 5782,
      "Ġ189": 5783,
      "Ġservices": 5784,
      "Ġcircum": 5785,
      "Ġfailed": 5786,
      "Perhaps": 5787,
      "bra": 5788,
      "Ġsilly": 5789,
      "ĠHot": 5790,
      "Ġserve": 5791,
      "Isn": 5792,
      "Ġforeign": 5793,
      "Ġlaws": 5794,
      "Ġglasses": 5795,
      "ĠAngeles": 5796,
      "Ġnervous": 5797,
      "Ġtourn": 5798,
      "Ġbunch": 5799,
      "Ġmale": 5800,
      "Ġdun": 5801,
      "atory": 5802,
      "Ġstyle": 5803,
      "ĠUk": 5804,
      "Ġsmoke": 5805,
      "Ġserving": 5806,
      "Ġenter": 5807,
      "ĠScrooge": 5808,
      "Ġholes": 5809,
      "daddy": 5810,
      "itz": 5811,
      "ĠCat": 5812,
      "Ġrice": 5813,
      "Ġstaying": 5814,
      "Ġplanning": 5815,
      "ĠMuslim": 5816,
      "Tw": 5817,
      "garet": 5818,
      "wan": 5819,
      "Ġbone": 5820,
      "Ġrelease": 5821,
      "ĠBund": 5822,
      "ĠFC": 5823,
      "ĠJake": 5824,
      "quar": 5825,
      "Ġ32": 5826,
      "Ġmatters": 5827,
      "ibility": 5828,
      "goes": 5829,
      "Bye": 5830,
      "ental": 5831,
      "Ġfork": 5832,
      "Ġliber": 5833,
      "ĠBan": 5834,
      "Ġroy": 5835,
      "Ġamb": 5836,
      "Ġsurround": 5837,
      "Ġveget": 5838,
      "Ġshadow": 5839,
      "Ha": 5840,
      "yr": 5841,
      "Ġwond": 5842,
      "Ġkm": 5843,
      "road": 5844,
      "ĠHel": 5845,
      "Ġmedal": 5846,
      "60": 5847,
      "law": 5848,
      "war": 5849,
      "Ġtour": 5850,
      "Ġsection": 5851,
      "Ġoranges": 5852,
      "Ġbarn": 5853,
      "Ġguns": 5854,
      "Ġprisoners": 5855,
      "Ġcandid": 5856,
      "\"?": 5857,
      "pir": 5858,
      "six": 5859,
      "Ġ..": 5860,
      "open": 5861,
      "Ġsplend": 5862,
      "Ġthroughout": 5863,
      "ailed": 5864,
      "Ġ188": 5865,
      "ALL": 5866,
      "Ġgrandmother": 5867,
      "Ġtarget": 5868,
      "Mac": 5869,
      "Ġaunt": 5870,
      "Ġheat": 5871,
      "Ġreve": 5872,
      "ĠMore": 5873,
      "ĠMama": 5874,
      "ĠAEW": 5875,
      "ĠWay": 5876,
      "Ġadop": 5877,
      "Ġhearts": 5878,
      "Ġplanet": 5879,
      "Ġedge": 5880,
      "Ġadvice": 5881,
      "Ġstrike": 5882,
      "Ġperforman": 5883,
      "Ġpatient": 5884,
      "Ġamazing": 5885,
      "esome": 5886,
      "Ġgenerally": 5887,
      "Ġissue": 5888,
      "Ġshooting": 5889,
      "Since": 5890,
      "Ġmaid": 5891,
      "Ġinit": 5892,
      "ĠSee": 5893,
      "ĠLook": 5894,
      "ĠUp": 5895,
      "udd": 5896,
      "Ġsorts": 5897,
      "Ġtraffic": 5898,
      "ĠGovernor": 5899,
      "writer": 5900,
      "ĠAcademy": 5901,
      "Ġopinion": 5902,
      "nan": 5903,
      "itar": 5904,
      "oria": 5905,
      "ima": 5906,
      "acon": 5907,
      "ĠPan": 5908,
      "ĠFar": 5909,
      "icking": 5910,
      "Ġflo": 5911,
      "Ġmountains": 5912,
      "Ġcopy": 5913,
      "Ġteddy": 5914,
      "long": 5915,
      "Ġfaster": 5916,
      "amma": 5917,
      "Ġune": 5918,
      "ĠPict": 5919,
      "Ġdeck": 5920,
      "Ġsurely": 5921,
      "Ġdesk": 5922,
      "clears": 5923,
      "engers": 5924,
      "Ġcookie": 5925,
      "Ġsalt": 5926,
      "Ġsalad": 5927,
      "Ġvalue": 5928,
      "Con": 5929,
      "ault": 5930,
      "sounds": 5931,
      "Ġachie": 5932,
      "orough": 5933,
      "ĠHi": 5934,
      "ĠPolly": 5935,
      "Ġplums": 5936,
      "Ġhearing": 5937,
      "blue": 5938,
      "Ġadminist": 5939,
      "Ġappearance": 5940,
      "TH": 5941,
      "cr": 5942,
      "Ġmor": 5943,
      "ĠMY": 5944,
      "ĠMill": 5945,
      "ĠAbout": 5946,
      "Ġriding": 5947,
      "ability": 5948,
      "Ġexcellent": 5949,
      "Ġblame": 5950,
      "Ġpreschool": 5951,
      "Ġstru": 5952,
      "Ġkidding": 5953,
      "Ġ1980": 5954,
      "Ġsnake": 5955,
      "FF": 5956,
      "Hold": 5957,
      "Urs": 5958,
      "Ġwinning": 5959,
      "Ġpred": 5960,
      "astern": 5961,
      "cho": 5962,
      "Ġancient": 5963,
      "Ġpartner": 5964,
      "Ġthoughts": 5965,
      "Ġactive": 5966,
      "Ġleague": 5967,
      "Ġpolic": 5968,
      "Ġrespond": 5969,
      "Christ": 5970,
      "Ġcurrently": 5971,
      "Ġcritic": 5972,
      "case": 5973,
      "mission": 5974,
      "ĠHI": 5975,
      "isions": 5976,
      "Ġstir": 5977,
      "Ġdoors": 5978,
      "ulous": 5979,
      "ĠJac": 5980,
      "Ġoblig": 5981,
      "Ġorganization": 5982,
      "ĠGovernment": 5983,
      "OH": 5984,
      "Rem": 5985,
      "Ġbug": 5986,
      "Ġcards": 5987,
      "ani": 5988,
      "essel": 5989,
      "leg": 5990,
      "Ġnest": 5991,
      "Ġlies": 5992,
      "ĠJenn": 5993,
      "Ġuniversity": 5994,
      "Ġdrawn": 5995,
      "Ġweapons": 5996,
      "Fran": 5997,
      "chief": 5998,
      "ĠStar": 5999,
      "ĠMarie": 6000,
      "Ġentertain": 6001,
      "Ġelephants": 6002,
      "vest": 6003,
      "ĠRay": 6004,
      "Ġcreature": 6005,
      "Ġhasta": 6006,
      "ILL": 6007,
      "NOW": 6008,
      "pull": 6009,
      "Ġcourage": 6010,
      "Ġpears": 6011,
      "Ġhm": 6012,
      "Ġhiding": 6013,
      "Ġnation": 6014,
      "ĠJesus": 6015,
      "Ġpros": 6016,
      "Ġcloud": 6017,
      "Ġscrew": 6018,
      "Ġresc": 6019,
      "Ġ1995": 6020,
      "Before": 6021,
      "Ġkingdom": 6022,
      "black": 6023,
      "ĠAlexander": 6024,
      "Ġpillow": 6025,
      "Ġtouched": 6026,
      "22": 6027,
      "bled": 6028,
      "ata": 6029,
      "ĠIll": 6030,
      "ĠShi": 6031,
      "ĠMost": 6032,
      "ĠCons": 6033,
      "Ġshell": 6034,
      "Ġjun": 6035,
      "ĠRom": 6036,
      "Ġrob": 6037,
      "Ġfriendly": 6038,
      "ounce": 6039,
      "Ġplanned": 6040,
      "ÃŃt": 6041,
      "Ġunclear": 6042,
      "Ġproperty": 6043,
      "Ġindustry": 6044,
      "Ġwagon": 6045,
      "ĠMerle": 6046,
      "Ġopposite": 6047,
      "40": 6048,
      "Ġyard": 6049,
      "ĠArab": 6050,
      "Ġgoal": 6051,
      "Ġhadta": 6052,
      "Ġarran": 6053,
      "Ġbegins": 6054,
      "scream": 6055,
      "Ġmispronounced": 6056,
      "Ġdisappeared": 6057,
      "Ġmixed": 6058,
      "Actually": 6059,
      "ni": 6060,
      "rot": 6061,
      "erable": 6062,
      "Ġbub": 6063,
      "isher": 6064,
      "ĠSing": 6065,
      "stead": 6066,
      "Ġrug": 6067,
      "ĠGers": 6068,
      "odes": 6069,
      "ĠVirgin": 6070,
      "Ġ1960": 6071,
      "Ġdrove": 6072,
      "Ġpotatoes": 6073,
      "Ġclimb": 6074,
      "Ġclimate": 6075,
      "Ġmirror": 6076,
      "Ġarrested": 6077,
      "ĠMaine": 6078,
      "Ġsomehow": 6079,
      "Ġexerc": 6080,
      "ga": 6081,
      "Ġcad": 6082,
      "Ġforgive": 6083,
      "Ġneg": 6084,
      "Ġalpha": 6085,
      "Ġvir": 6086,
      "Ġsilent": 6087,
      "ension": 6088,
      "ĠJohnson": 6089,
      "Ġbuildings": 6090,
      "reedom": 6091,
      "Ġdim": 6092,
      "Ġthin": 6093,
      "ĠEven": 6094,
      "Ġvessel": 6095,
      "Ġarrange": 6096,
      "Ġgrace": 6097,
      "ĠStan": 6098,
      "Ġpresence": 6099,
      "Ġuseful": 6100,
      "ĠBecky": 6101,
      "Ġlegal": 6102,
      "cientists": 6103,
      "ym": 6104,
      "rend": 6105,
      "Ġsink": 6106,
      "irlf": 6107,
      "ĠBu": 6108,
      "ĠWall": 6109,
      "ĠDou": 6110,
      "ĠRy": 6111,
      "Ġrushed": 6112,
      "ARD": 6113,
      "Ġbiggest": 6114,
      "Ġsmiling": 6115,
      "Ġ2002": 6116,
      "Ġ1998": 6117,
      "Those": 6118,
      "Ġspecific": 6119,
      "moves": 6120,
      "Ġpressure": 6121,
      "Ġbunny": 6122,
      "Ġpale": 6123,
      "oses": 6124,
      "aren": 6125,
      "Ġowner": 6126,
      "Ġfairly": 6127,
      "Ġdetect": 6128,
      "Ġweapon": 6129,
      "{\\": 6130,
      "aring": 6131,
      "ĠPers": 6132,
      "ĠWE": 6133,
      "ĠLI": 6134,
      "Ġcomment": 6135,
      "care": 6136,
      "Ġadvert": 6137,
      "Ġhurried": 6138,
      "ĠĠĠĠĠĠĠĠĠĠĠĠĠĠĠĠĠĠĠĠĠĠĠĠ": 6139,
      "Ġmedia": 6140,
      "Ġservant": 6141,
      "Ġburning": 6142,
      "Lea": 6143,
      "ua": 6144,
      "uries": 6145,
      "za": 6146,
      "Ġchat": 6147,
      "ancial": 6148,
      "ĠTwo": 6149,
      "Ġspill": 6150,
      "Ġdolls": 6151,
      "onstr": 6152,
      "Ġgrey": 6153,
      "Ġrank": 6154,
      "Ġshoulders": 6155,
      "Ġscore": 6156,
      "Ġ1994": 6157,
      "Ġescap": 6158,
      "irlfriend": 6159,
      "rant": 6160,
      "Ġpra": 6161,
      "Ġnative": 6162,
      "artment": 6163,
      "Ġrare": 6164,
      "Ġaccess": 6165,
      "Ġ1999": 6166,
      "ropol": 6167,
      "ĠDonald": 6168,
      "Ġnorthern": 6169,
      "Ġtear": 6170,
      "Ġborder": 6171,
      "Ġupside": 6172,
      "uments": 6173,
      "Ġrout": 6174,
      "osen": 6175,
      "Ġpregn": 6176,
      "Ġcrim": 6177,
      "Ġrealize": 6178,
      "ĠCarol": 6179,
      "Ġdarkness": 6180,
      "Ġdestroyed": 6181,
      "Sc": 6182,
      "Ġfier": 6183,
      "aron": 6184,
      "Ġnotes": 6185,
      "Ġsheep": 6186,
      "ĠWent": 6187,
      "ĠFI": 6188,
      "Ġcontribut": 6189,
      "Ġboats": 6190,
      "Ġ1996": 6191,
      "Ġinvited": 6192,
      "Ġevident": 6193,
      "Ġexcitement": 6194,
      "Ġhello": 6195,
      "achel": 6196,
      "Ġrecording": 6197,
      "Ġtreated": 6198,
      "Ġveh": 6199,
      "Ġproduction": 6200,
      "Ġtradition": 6201,
      "Ġlibrary": 6202,
      "Cause": 6203,
      "sa": 6204,
      "Ġpsych": 6205,
      "ette": 6206,
      "acha": 6207,
      "Ġreasons": 6208,
      "ĠTor": 6209,
      "ĠBig": 6210,
      "...?": 6211,
      "Ġagre": 6212,
      "Ġchap": 6213,
      "Ġburied": 6214,
      "Ġrelated": 6215,
      "ĠDoctor": 6216,
      "ĠTurk": 6217,
      "About": 6218,
      "ND": 6219,
      "Tilda": 6220,
      "Ġtun": 6221,
      "Ġwine": 6222,
      "Ġlone": 6223,
      "icans": 6224,
      "Ġstaff": 6225,
      "Ġcloth": 6226,
      "ĠChris": 6227,
      "Ġends": 6228,
      "Ġdescend": 6229,
      "Ġpassing": 6230,
      "ĠAtl": 6231,
      "Ġtransport": 6232,
      "Ġeffort": 6233,
      "ĠLatin": 6234,
      "utenant": 6235,
      "Ġtournament": 6236,
      "Ġroyal": 6237,
      "ugh": 6238,
      "ware": 6239,
      "inc": 6240,
      "Ġcott": 6241,
      "Ġfired": 6242,
      "Ġknight": 6243,
      "Ġanti": 6244,
      "dere": 6245,
      "Ġtowns": 6246,
      "Ġmainly": 6247,
      "Ġsouthwestern": 6248,
      "Call": 6249,
      "fire": 6250,
      "Ġtie": 6251,
      "Ġtip": 6252,
      "Ġfan": 6253,
      "Ġpony": 6254,
      "Ġlosing": 6255,
      "ĠMax": 6256,
      "ĠTHIS": 6257,
      "ĠCooper": 6258,
      "angar": 6259,
      "Ġsetting": 6260,
      "ĠArgent": 6261,
      "Ġcats": 6262,
      "Ġthousands": 6263,
      "Alright": 6264,
      "ITH": 6265,
      "Ġloudly": 6266,
      "Ġvictory": 6267,
      "New": 6268,
      "phe": 6269,
      "Ġaver": 6270,
      "Ġlollipop": 6271,
      "ĠIrish": 6272,
      "ĠSea": 6273,
      "uman": 6274,
      "ague": 6275,
      "angle": 6276,
      "Ġdrug": 6277,
      "Ġhandsome": 6278,
      "Ġfairy": 6279,
      "Ġexpression": 6280,
      "Ġprofessor": 6281,
      "ĠCentral": 6282,
      "Ġapartment": 6283,
      "ĠPortug": 6284,
      "ĠLabour": 6285,
      "During": 6286,
      "unts": 6287,
      "gel": 6288,
      "bridge": 6289,
      "Ġintellig": 6290,
      "Ġdivor": 6291,
      "Ġknocked": 6292,
      "whispered": 6293,
      "ĠAustralian": 6294,
      "Ġdelicious": 6295,
      "Ġdefinitely": 6296,
      "nology": 6297,
      "Cos": 6298,
      "Say": 6299,
      "Ġwra": 6300,
      "Ġsang": 6301,
      "anut": 6302,
      "still": 6303,
      "urance": 6304,
      "ateg": 6305,
      "irls": 6306,
      "angers": 6307,
      "Ġremoved": 6308,
      "Ġslide": 6309,
      "Ġ1970": 6310,
      "ĠEmperor": 6311,
      "ĠRecords": 6312,
      "gi": 6313,
      "icket": 6314,
      "Ġafford": 6315,
      "pton": 6316,
      "Ġbreaking": 6317,
      "Ġballoon": 6318,
      "Ġcookies": 6319,
      "ĠFlorida": 6320,
      "ipped": 6321,
      "Ġtooth": 6322,
      "ĠSqu": 6323,
      "ĠBest": 6324,
      "eping": 6325,
      "Ġtruly": 6326,
      "Ġlistened": 6327,
      "Ġpriest": 6328,
      "ĠDisney": 6329,
      "Ġphilos": 6330,
      "NO": 6331,
      "ĠâĢĻ": 6332,
      "ĠSar": 6333,
      "olar": 6334,
      "Ġcompos": 6335,
      "Ġacting": 6336,
      "ĠMargaret": 6337,
      "Ġclever": 6338,
      "ropri": 6339,
      "Ġenjoyed": 6340,
      "Ġcitiz": 6341,
      "Put": 6342,
      "ano": 6343,
      "Ġpity": 6344,
      "Ġloose": 6345,
      "athan": 6346,
      "....": 6347,
      "ĠAct": 6348,
      "weet": 6349,
      "Ġpoison": 6350,
      "onsense": 6351,
      "Ġ1992": 6352,
      "Ġlarger": 6353,
      "Ġpresently": 6354,
      "Ġrecorded": 6355,
      "Ġexchan": 6356,
      "Ġlessons": 6357,
      "Ġpupp": 6358,
      "ĠColumb": 6359,
      "Ġwedding": 6360,
      "Ġbodies": 6361,
      "Ġcircumst": 6362,
      "OL": 6363,
      "cup": 6364,
      "sl": 6365,
      "tt": 6366,
      "iture": 6367,
      "Ġreview": 6368,
      "istry": 6369,
      "Ġprevious": 6370,
      "Ġunderstood": 6371,
      "ANG": 6372,
      "ĠRev": 6373,
      "Ġpositive": 6374,
      "ĠBarb": 6375,
      "Ġcreate": 6376,
      "ĠComp": 6377,
      "Ġwitness": 6378,
      "wers": 6379,
      "ĠBa": 6380,
      "Ġsuffe": 6381,
      "Ġprefer": 6382,
      "Ġcray": 6383,
      "ocr": 6384,
      "Ġlearning": 6385,
      "Ġexpress": 6386,
      "Ġdirectly": 6387,
      "Ġexciting": 6388,
      "Ġsettlement": 6389,
      "EP": 6390,
      "Fine": 6391,
      "Huh": 6392,
      "mine": 6393,
      "heast": 6394,
      "icide": 6395,
      "ulk": 6396,
      "ulty": 6397,
      "essert": 6398,
      "ĠEll": 6399,
      "ĠEst": 6400,
      "Ġconcent": 6401,
      "ĠVer": 6402,
      "ĠYear": 6403,
      "Ġadult": 6404,
      "Ġhoping": 6405,
      "Ġfields": 6406,
      "'...": 6407,
      "25": 6408,
      "Nice": 6409,
      "eks": 6410,
      "gain": 6411,
      "ipe": 6412,
      "Ġlake": 6413,
      "ĠMavis": 6414,
      "ĠThanks": 6415,
      "ĠBook": 6416,
      "ilty": 6417,
      "ĠRon": 6418,
      "Ġprogress": 6419,
      "Ġkilling": 6420,
      "Ġbesides": 6421,
      "iraffe": 6422,
      "Ġsplendid": 6423,
      "angaroo": 6424,
      "cles": 6425,
      "ras": 6426,
      "Ġast": 6427,
      "ora": 6428,
      "ett": 6429,
      "ĠHome": 6430,
      "Ġshook": 6431,
      "Ġsports": 6432,
      "Ġvent": 6433,
      "Ġclown": 6434,
      "Ġthrown": 6435,
      "ĠAndrew": 6436,
      "Once": 6437,
      "Ġcreatures": 6438,
      "ervation": 6439,
      "ĠPlay": 6440,
      "Ġfortune": 6441,
      "stein": 6442,
      "!âĢĻ": 6443,
      "21": 6444,
      "ingu": 6445,
      "ĠHave": 6446,
      "ending": 6447,
      "Ġshame": 6448,
      "ĠBecause": 6449,
      "Ġrefused": 6450,
      "Ġgovernor": 6451,
      "iamond": 6452,
      "Ġteaching": 6453,
      "Everyone": 6454,
      "Ġindependent": 6455,
      "Brian": 6456,
      "UCK": 6457,
      "iri": 6458,
      "isa": 6459,
      "Ġpause": 6460,
      "elcome": 6461,
      "Ġchain": 6462,
      "ungle": 6463,
      "Ġfinds": 6464,
      "Ġbadly": 6465,
      "Ġlocation": 6466,
      "Ġrequest": 6467,
      "stitute": 6468,
      "Ġbuddy": 6469,
      "ĠIra": 6470,
      "Ġbee": 6471,
      "ĠFair": 6472,
      "Ġchosen": 6473,
      "Ġseriously": 6474,
      "Ġresponsible": 6475,
      "RA": 6476,
      "sound": 6477,
      "Ġsons": 6478,
      "oned": 6479,
      "Ġyo": 6480,
      "Ġpants": 6481,
      "ĠRel": 6482,
      "istic": 6483,
      "ĠLike": 6484,
      "Ġpickle": 6485,
      "ointment": 6486,
      "ĠSocial": 6487,
      "Ġsymp": 6488,
      "Ġincludes": 6489,
      "Ġchecked": 6490,
      "Ġpenny": 6491,
      "iliar": 6492,
      "Ġpalace": 6493,
      "avaria": 6494,
      "Ooh": 6495,
      "Sec": 6496,
      "Ġtough": 6497,
      "ĠBay": 6498,
      "ĠBavaria": 6499,
      "ĠNaz": 6500,
      "Ġprepar": 6501,
      "ancing": 6502,
      "Ġmethod": 6503,
      "Ġsnap": 6504,
      "Ġmaterial": 6505,
      "Ġdistributed": 6506,
      "Com": 6507,
      "IA": 6508,
      "gers": 6509,
      "mouth": 6510,
      "iner": 6511,
      "Ġbuck": 6512,
      "Ġpil": 6513,
      "acle": 6514,
      "ĠHill": 6515,
      "about": 6516,
      "emic": 6517,
      "ĠJon": 6518,
      "Ġscreen": 6519,
      "Ġchop": 6520,
      "Ġcontr": 6521,
      "Ġresults": 6522,
      "Ġpicking": 6523,
      "Ġmission": 6524,
      "UNC": 6525,
      "Ġadvant": 6526,
      "ĠRamsey": 6527,
      "ĠWentworth": 6528,
      "Bet": 6529,
      "MAN": 6530,
      "Ġtim": 6531,
      "Ġgirlfriend": 6532,
      "ĠSur": 6533,
      "stone": 6534,
      "bey": 6535,
      "formed": 6536,
      "anches": 6537,
      "ception": 6538,
      "Ġtransfer": 6539,
      "Ġprovince": 6540,
      "Ġnewspaper": 6541,
      "bow": 6542,
      "Ġaim": 6543,
      "Ġbicycle": 6544,
      "ĠMummy": 6545,
      "ĠVerm": 6546,
      "ubs": 6547,
      "Ġchampion": 6548,
      "ocks": 6549,
      "Ġdesert": 6550,
      "Ġwatermelon": 6551,
      "Ġconditions": 6552,
      "Ġentirely": 6553,
      "talking": 6554,
      "cries": 6555,
      "fle": 6556,
      "Ġ:": 6557,
      "Ġtal": 6558,
      "hamed": 6559,
      "Ġmort": 6560,
      "Ġpit": 6561,
      "Ġhomes": 6562,
      "Ġbeer": 6563,
      "ĠAh": 6564,
      "ĠAri": 6565,
      "apt": 6566,
      "ĠKar": 6567,
      "Ġtroops": 6568,
      "Ġfeather": 6569,
      "Ġapples": 6570,
      "Ġreceive": 6571,
      "Ġinnocent": 6572,
      "Most": 6573,
      "name": 6574,
      "Ġmap": 6575,
      "Ġdessert": 6576,
      "Ġrat": 6577,
      "Ġterrit": 6578,
      "Ġ1991": 6579,
      "Ġpaying": 6580,
      "Ġjobs": 6581,
      "ĠGeorg": 6582,
      "Ġdefeated": 6583,
      "Ġpipe": 6584,
      "Ġcredit": 6585,
      ")}": 6586,
      "die": 6587,
      "sk": 6588,
      "referent": 6589,
      "Ġbon": 6590,
      "Ġbold": 6591,
      "oos": 6592,
      "ĠBea": 6593,
      "thel": 6594,
      "Whatever": 6595,
      "ĠVict": 6596,
      "Ġstands": 6597,
      "ĠAsian": 6598,
      "ĠScar": 6599,
      "Ġdelay": 6600,
      "Ġrange": 6601,
      "ĠCharlie": 6602,
      "Ġselling": 6603,
      "ĠSecond": 6604,
      "Ġdetermined": 6605,
      "Ġwestern": 6606,
      "Ġcode": 6607,
      "ĠMajesty": 6608,
      "sters": 6609,
      "Ġjacket": 6610,
      "ĠFort": 6611,
      "ĠEv": 6612,
      "Ġrecently": 6613,
      "ERS": 6614,
      "Ġraise": 6615,
      "Ġmeters": 6616,
      "Ġpainted": 6617,
      "umbling": 6618,
      "Ġcooking": 6619,
      "Ġdocument": 6620,
      "American": 6621,
      "dess": 6622,
      "green": 6623,
      "ios": 6624,
      "vy": 6625,
      "erman": 6626,
      "Ġdozen": 6627,
      "ĠBull": 6628,
      "ĠNOT": 6629,
      "ĠLin": 6630,
      "ĠLake": 6631,
      "ĠOut": 6632,
      "Ġappointed": 6633,
      "ĠArt": 6634,
      "Ġcutting": 6635,
      "Ġwaves": 6636,
      "Ġkissed": 6637,
      "OME": 6638,
      "Ġdescribed": 6639,
      "ĠAuntie": 6640,
      "Ġslept": 6641,
      ".--": 6642,
      "En": 6643,
      "Fl": 6644,
      "Other": 6645,
      "iest": 6646,
      "Ġaid": 6647,
      "Ġmerc": 6648,
      "Ġcrew": 6649,
      "ann": 6650,
      "tery": 6651,
      "ulations": 6652,
      "ĠGet": 6653,
      "new": 6654,
      "were": 6655,
      "Ġquit": 6656,
      "ĠStud": 6657,
      "Ġguilty": 6658,
      "Ġcloset": 6659,
      "Ġsuggested": 6660,
      "Ġcollection": 6661,
      "Ġextremely": 6662,
      "Ġlonely": 6663,
      "Ġsuffered": 6664,
      "Tom": 6665,
      "och": 6666,
      "Ġwid": 6667,
      "Ġrent": 6668,
      "Ġrush": 6669,
      "ĠNick": 6670,
      "igned": 6671,
      "Ġdesper": 6672,
      "Ġdrama": 6673,
      "ĠArch": 6674,
      "Ġtransl": 6675,
      "Ġcharacters": 6676,
      "ĠRodger": 6677,
      "Ġpure": 6678,
      "Ġpiano": 6679,
      "athered": 6680,
      "aly": 6681,
      "ĠHea": 6682,
      "ĠEaster": 6683,
      "ĠOff": 6684,
      "Ġresist": 6685,
      "Ġissues": 6686,
      "Ġlocked": 6687,
      "Ġsuspic": 6688,
      "Ġappreciate": 6689,
      "ĠVermont": 6690,
      "23": 6691,
      "Over": 6692,
      "Whin": 6693,
      "Ã¦": 6694,
      "Ġwha": 6695,
      "imp": 6696,
      "ĠSpr": 6697,
      "stra": 6698,
      "Ġdose": 6699,
      "Ġshel": 6700,
      "Ġsausage": 6701,
      "ĠLove": 6702,
      "Ġbranches": 6703,
      "issa": 6704,
      "Ġeaten": 6705,
      "Ġcrash": 6706,
      "Ġ186": 6707,
      "Ġstudent": 6708,
      "Ġ1981": 6709,
      "ONE": 6710,
      "Ġsignific": 6711,
      "Ġdivided": 6712,
      "Ġintrodu": 6713,
      "Michael": 6714,
      "OP": 6715,
      "Pr": 6716,
      "Ġsorrow": 6717,
      "Ġdump": 6718,
      "Ġbend": 6719,
      "ĠShar": 6720,
      "elia": 6721,
      "ĠOli": 6722,
      "ĠVo": 6723,
      "Ġguitar": 6724,
      "Ġbitter": 6725,
      "Ġ60": 6726,
      "ĠProfess": 6727,
      "Ġtender": 6728,
      "ĠSusan": 6729,
      "Ġperformance": 6730,
      "Ursula": 6731,
      "LA": 6732,
      "RY": 6733,
      "Ġsigh": 6734,
      "Ġbid": 6735,
      "Ġhorn": 6736,
      "Ġbeast": 6737,
      "ĠRE": 6738,
      "ĠRight": 6739,
      "Ġconv": 6740,
      "Ġconference": 6741,
      "Ġclip": 6742,
      "ĠVan": 6743,
      "Ġuns": 6744,
      "Ġmighty": 6745,
      "whoops": 6746,
      "ĠHarry": 6747,
      "Ġhorsie": 6748,
      "Ġshouted": 6749,
      "Ġhidden": 6750,
      "KE": 6751,
      "Ġdust": 6752,
      "ented": 6753,
      "Ġaside": 6754,
      "ĠBir": 6755,
      "Ġsees": 6756,
      "ateful": 6757,
      "Ġroles": 6758,
      "ĠStep": 6759,
      "Ġswear": 6760,
      "Ġairport": 6761,
      "Ġpulling": 6762,
      "Ġavoid": 6763,
      "Ġdesigned": 6764,
      "break": 6765,
      "Ġrubber": 6766,
      "Ġ0": 6767,
      "Ġtask": 6768,
      "Ġpile": 6769,
      "Ġinsp": 6770,
      "amily": 6771,
      "Ġotherwise": 6772,
      "Ġgrant": 6773,
      "Ġglance": 6774,
      "Ġhurts": 6775,
      "Ġreports": 6776,
      "Ġcereal": 6777,
      "Ġincrease": 6778,
      "MT": 6779,
      "While": 6780,
      "dear": 6781,
      "Ġcone": 6782,
      "umn": 6783,
      "ĠNic": 6784,
      "emies": 6785,
      "whines": 6786,
      "Ġadmit": 6787,
      "Ġfellows": 6788,
      "ĠDepartment": 6789,
      "Ġmagazine": 6790,
      "Whinney": 6791,
      "coh": 6792,
      "nuhhuh": 6793,
      "Ġtied": 6794,
      "noise": 6795,
      "amm": 6796,
      "Ġplates": 6797,
      "Ġbranch": 6798,
      "ootball": 6799,
      "Ġ1993": 6800,
      "Ġhorrible": 6801,
      "Ġpossess": 6802,
      "Ġprize": 6803,
      "Ġhonour": 6804,
      "Ġsales": 6805,
      "Ġformula": 6806,
      "Ġprovide": 6807,
      "Ġauthority": 6808,
      "ĠâĢĶ": 6809,
      "Ġpump": 6810,
      "Ġwealth": 6811,
      "Ġassoci": 6812,
      "ĠWhile": 6813,
      "Ġrac": 6814,
      "eps": 6815,
      "Ġeats": 6816,
      "Ġfourteen": 6817,
      "anche": 6818,
      "Ġdistur": 6819,
      "Ġincident": 6820,
      "Ġattacked": 6821,
      "Ġcrossed": 6822,
      "Ġprogramme": 6823,
      "Ġproducer": 6824,
      "Ġaffair": 6825,
      "Ġscratch": 6826,
      "Ġcounter": 6827,
      "Ġfalse": 6828,
      "orne": 6829,
      "ĠSE": 6830,
      "ĠCle": 6831,
      "ĠHAVE": 6832,
      "chair": 6833,
      "ĠZe": 6834,
      "Ġ1987": 6835,
      "comune": 6836,
      "ĠRepublican": 6837,
      "Ġseparate": 6838,
      "write": 6839,
      "More": 6840,
      "bar": 6841,
      "anny": 6842,
      "esota": 6843,
      "ali": 6844,
      "ĠDiv": 6845,
      "Ġdey": 6846,
      "ĠLaura": 6847,
      "rennan": 6848,
      "Ġours": 6849,
      "Ġbecomes": 6850,
      "Ġsurface": 6851,
      "Ġ1997": 6852,
      "umbled": 6853,
      "Ġfailure": 6854,
      "Lot": 6855,
      "whe": 6856,
      "Ġbones": 6857,
      "Ġgather": 6858,
      "owder": 6859,
      "ĠTre": 6860,
      "ĠRad": 6861,
      "oles": 6862,
      "Ġplus": 6863,
      "Ġspare": 6864,
      "Ġvalley": 6865,
      "Ġthrone": 6866,
      "eaking": 6867,
      "Ġ187": 6868,
      "Ġinvol": 6869,
      "ĠJohnny": 6870,
      "Ġbeneath": 6871,
      "ĠSenate": 6872,
      "Ġstranger": 6873,
      "Father": 6874,
      "IE": 6875,
      "Ġfart": 6876,
      "Ġgay": 6877,
      "icago": 6878,
      "rib": 6879,
      "sec": 6880,
      "ĠAT": 6881,
      "raine": 6882,
      "ĠRog": 6883,
      "ĠNob": 6884,
      "Ġconce": 6885,
      "Ġoldest": 6886,
      "Ġchoo": 6887,
      "ggy": 6888,
      "leted": 6889,
      "Ġfinancial": 6890,
      "Ġrestaur": 6891,
      "Ġsymb": 6892,
      "197": 6893,
      "Ġconfl": 6894,
      "Ġproposed": 6895,
      "Ġfolks": 6896,
      "ĠPrincess": 6897,
      "Dear": 6898,
      "David": 6899,
      "great": 6900,
      "giving": 6901,
      "wide": 6902,
      "works": 6903,
      "Ġfant": 6904,
      "Ġlic": 6905,
      "ĠSince": 6906,
      "ams": 6907,
      "ĠApp": 6908,
      "Ġspite": 6909,
      "ĠKansas": 6910,
      "ESS": 6911,
      "OUT": 6912,
      "Ġtreasure": 6913,
      "Someone": 6914,
      "Ġchase": 6915,
      "Ġremains": 6916,
      "didn": 6917,
      "Ġanswers": 6918,
      "Ġexplained": 6919,
      "Ġactivist": 6920,
      "ĠMartin": 6921,
      "ĠJersey": 6922,
      "Ġcanton": 6923,
      "Ġnearer": 6924,
      "ĠMinnesota": 6925,
      "Bill": 6926,
      "GFA": 6927,
      "pick": 6928,
      "Ġforms": 6929,
      "ĠSpe": 6930,
      "Ġstove": 6931,
      "rol": 6932,
      "ĠAthen": 6933,
      "Ġseats": 6934,
      "Ġconsequ": 6935,
      "Ġclay": 6936,
      "Ġcovers": 6937,
      "Ġfamiliar": 6938,
      "Ġobtain": 6939,
      "Ġ1988": 6940,
      "bbed": 6941,
      "Ġtreatment": 6942,
      "Ġoriginally": 6943,
      "Ġbelongs": 6944,
      "Ġburned": 6945,
      "Ġpackage": 6946,
      "pensive": 6947,
      "Ġcottage": 6948,
      "pitched": 6949,
      "ĠÂ": 6950,
      "Ġgained": 6951,
      "Ġgathered": 6952,
      "Ġnail": 6953,
      "ĠHy": 6954,
      "ĠWild": 6955,
      "Ġdrugs": 6956,
      "ika": 6957,
      "Ġdreadful": 6958,
      "Ġcomedy": 6959,
      "Ġobliged": 6960,
      "mi": 6961,
      "lyn": 6962,
      "ĠTy": 6963,
      "ĠWas": 6964,
      "ela": 6965,
      "Ġparties": 6966,
      "Ġmoments": 6967,
      "ĠArthur": 6968,
      "Ġstepped": 6969,
      "Ġ1950": 6970,
      "inois": 6971,
      "Ġcompanion": 6972,
      "Ġperformed": 6973,
      "Ġdestroy": 6974,
      "ĠHungry": 6975,
      "Ġchampionship": 6976,
      "Ġstructure": 6977,
      "_.": 6978,
      "ko": 6979,
      "esides": 6980,
      "Ġhabit": 6981,
      "icate": 6982,
      "Ġbeans": 6983,
      "ĠTer": 6984,
      "raham": 6985,
      "geon": 6986,
      "ĠGal": 6987,
      "Ġunp": 6988,
      "Ġcheeks": 6989,
      "Ġattached": 6990,
      "uclear": 6991,
      "Ġhated": 6992,
      "Ġ1972": 6993,
      "Anyway": 6994,
      "Ġslightly": 6995,
      "Ġchemical": 6996,
      "Ġalphabet": 6997,
      "comm": 6998,
      "Ġdough": 6999,
      "owing": 7000,
      "Ġrefe": 7001,
      "urd": 7002,
      "Ġsevere": 7003,
      "Ġracing": 7004,
      "ĠJones": 7005,
      "Ġrooms": 7006,
      "Ġpassengers": 7007,
      "Still": 7008,
      "198": 7009,
      "Ġreplaced": 7010,
      "Ġmurdered": 7011,
      "Ġsafely": 7012,
      "ĠCastle": 7013,
      "Ġdunno": 7014,
      "Ġaverage": 7015,
      "jamin": 7016,
      "lings": 7017,
      "Ġfaint": 7018,
      "Ġlack": 7019,
      "Ġheav": 7020,
      "ĠSto": 7021,
      "ĠBilly": 7022,
      "ĠHon": 7023,
      "ĠWrest": 7024,
      "ĠLand": 7025,
      "ĠLife": 7026,
      "bef": 7027,
      "Nobody": 7028,
      "Ġshake": 7029,
      "Ġhelps": 7030,
      "Ġrelief": 7031,
      "Ġstudies": 7032,
      "Ġ1989": 7033,
      "iverse": 7034,
      "Ġinfluence": 7035,
      "Har": 7036,
      "MB": 7037,
      "Ġzzz": 7038,
      "Ġlink": 7039,
      "usted": 7040,
      "ĠGe": 7041,
      "igan": 7042,
      "Ġvain": 7043,
      "Ġjustice": 7044,
      "ĠOver": 7045,
      "Ġgotten": 7046,
      "together": 7047,
      "Ġproved": 7048,
      "Ġqueer": 7049,
      "Ġchallen": 7050,
      "ĠChild": 7051,
      "Ġswall": 7052,
      "Ġcupcake": 7053,
      "Didn": 7054,
      "Ġfeatures": 7055,
      "count": 7056,
      "Ã¤": 7057,
      "inter": 7058,
      "Ġwicked": 7059,
      "erves": 7060,
      "Ġmate": 7061,
      "orious": 7062,
      "Ġmeasure": 7063,
      "umes": 7064,
      "akin": 7065,
      "ART": 7066,
      "issors": 7067,
      "Ġguests": 7068,
      "Ġdism": 7069,
      "Ġchose": 7070,
      "Ġreality": 7071,
      "Ġaccomp": 7072,
      "Think": 7073,
      "Ġrepresented": 7074,
      "Ġwashers": 7075,
      "ĠIllinois": 7076,
      "cream": 7077,
      "uties": 7078,
      "Ġreck": 7079,
      "ĠTam": 7080,
      "eable": 7081,
      "Ġcommer": 7082,
      "Ġdisplay": 7083,
      "Ġpride": 7084,
      "Ġproof": 7085,
      "Ġhappiness": 7086,
      "iley": 7087,
      "ĠBrook": 7088,
      "should": 7089,
      "Ġ1985": 7090,
      "Ġconfess": 7091,
      "Ġproperly": 7092,
      "Ġhunting": 7093,
      "Fraser": 7094,
      "Ġfreedom": 7095,
      "Ġrear": 7096,
      "Ġreward": 7097,
      "ĠAlf": 7098,
      "ĠĠĠĠĠ": 7099,
      "Ġenemies": 7100,
      "ĠYOUR": 7101,
      "Ġknees": 7102,
      "ĠPhilip": 7103,
      "Ġlifted": 7104,
      "Ġobserved": 7105,
      "Ġbroadcast": 7106,
      "Ġetc": 7107,
      "Ġsource": 7108,
      "Ġromantic": 7109,
      "Ġindividual": 7110,
      "Ġpregnant": 7111,
      "NE": 7112,
      "wa": 7113,
      "Ġnick": 7114,
      "ĠList": 7115,
      "ĠKim": 7116,
      "Ġrecomm": 7117,
      "Ġsits": 7118,
      "Ġsooner": 7119,
      "ĠIndians": 7120,
      "Ġtaperecorder": 7121,
      "Ġexperi": 7122,
      "ĠTeam": 7123,
      "Ġrecognize": 7124,
      "Ġfurniture": 7125,
      "Remember": 7126,
      "gly": 7127,
      "iation": 7128,
      "Ġsouthern": 7129,
      "orter": 7130,
      "Ġgently": 7131,
      "ooke": 7132,
      "ĠSC": 7133,
      "Ġability": 7134,
      "Ġsport": 7135,
      "owned": 7136,
      "rane": 7137,
      "ĠChicago": 7138,
      "Ġresident": 7139,
      "Ġwarri": 7140,
      "Ġsquee": 7141,
      "pointing": 7142,
      "Ġdelighted": 7143,
      "MacWhinney": 7144,
      "Ġcircumstances": 7145,
      "Sometimes": 7146,
      "Ġaston": 7147,
      "icing": 7148,
      "Ġeh": 7149,
      "ĠSol": 7150,
      "ĠMars": 7151,
      "Ġanno": 7152,
      "ĠEthel": 7153,
      "Ġplayers": 7154,
      "Ġguest": 7155,
      "iple": 7156,
      "Ġbegun": 7157,
      "Ġpointed": 7158,
      "Ġribb": 7159,
      "ĠSwiss": 7160,
      "Ġmiserable": 7161,
      "Ġstatement": 7162,
      "Ġcowboy": 7163,
      "ropolitan": 7164,
      "dro": 7165,
      "ju": 7166,
      "piece": 7167,
      "ture": 7168,
      "Ġwitch": 7169,
      "rets": 7170,
      "Ġinn": 7171,
      "omed": 7172,
      "oots": 7173,
      "irit": 7174,
      "Ġgettin": 7175,
      "ĠKen": 7176,
      "neath": 7177,
      "Ġclient": 7178,
      "Ġbrush": 7179,
      "ĠInstitute": 7180,
      "Ġappears": 7181,
      "ĠAmericans": 7182,
      "Ġknee": 7183,
      "ĠAnne": 7184,
      "excuse": 7185,
      "Ġbaseball": 7186,
      "Ġmarked": 7187,
      "Ġsplit": 7188,
      "ĠService": 7189,
      "making": 7190,
      "Ġder": 7191,
      "rose": 7192,
      "ĠHaw": 7193,
      "umed": 7194,
      "ĠJr": 7195,
      "ĠVol": 7196,
      "Ġunfortun": 7197,
      "Ġrelax": 7198,
      "ĠGroup": 7199,
      "ealous": 7200,
      "Ġruled": 7201,
      "Ġdiscussion": 7202,
      "ĠMexican": 7203,
      "Ġintroduced": 7204,
      "olarship": 7205,
      "Make": 7206,
      "fish": 7207,
      "reck": 7208,
      "Ġcong": 7209,
      "Ġlat": 7210,
      "Ġnib": 7211,
      "ĠRa": 7212,
      "ĠLu": 7213,
      "berry": 7214,
      "Ġexpensive": 7215,
      "ĠHealth": 7216,
      "Ġagent": 7217,
      "Ġcris": 7218,
      "Ġmayor": 7219,
      "Ġbreast": 7220,
      "Ġwarning": 7221,
      "inson": 7222,
      "Ġsupported": 7223,
      "Ġoccurred": 7224,
      "Love": 7225,
      "Sha": 7226,
      "rels": 7227,
      "Ġgain": 7228,
      "Ġgang": 7229,
      "Ġkick": 7230,
      "Ġjew": 7231,
      "ĠDire": 7232,
      "Ġalarm": 7233,
      "ĠLO": 7234,
      "rang": 7235,
      "icted": 7236,
      "Ġ1986": 7237,
      "Ġtravell": 7238,
      "Looks": 7239,
      "Ġ1979": 7240,
      "ĠReport": 7241,
      "Ġwaved": 7242,
      "ylvan": 7243,
      "Ġelectric": 7244,
      "AUG": 7245,
      "ropriate": 7246,
      "!--": 7247,
      "Ad": 7248,
      "App": 7249,
      "Cha": 7250,
      "bal": 7251,
      "him": 7252,
      "pot": 7253,
      "uzz": 7254,
      "Ġign": 7255,
      "Ġtire": 7256,
      "Ġlob": 7257,
      "imer": 7258,
      "Ġstole": 7259,
      "ĠTra": 7260,
      "Ġspark": 7261,
      "Ġspect": 7262,
      "Ġwhenever": 7263,
      "ĠKat": 7264,
      "Ġresour": 7265,
      "aws": 7266,
      "ĠBefore": 7267,
      "Ġassistant": 7268,
      "bab": 7269,
      "ĠSong": 7270,
      "ĠTommy": 7271,
      "ĠTrans": 7272,
      "Ġmeas": 7273,
      "Ġfever": 7274,
      "atherine": 7275,
      "gets": 7276,
      "Ġcriter": 7277,
      "Ġ1984": 7278,
      "196": 7279,
      "Ġreply": 7280,
      "GRF": 7281,
      "doesn": 7282,
      "Ġpropos": 7283,
      "turns": 7284,
      "ĠIraq": 7285,
      "Geor": 7286,
      "onies": 7287,
      "isy": 7288,
      "Ġfully": 7289,
      "Ġthorough": 7290,
      "Ġwashed": 7291,
      "ĠMen": 7292,
      "hib": 7293,
      "Ġaffect": 7294,
      "Ġawake": 7295,
      "ĠClub": 7296,
      "Ġproduct": 7297,
      "cest": 7298,
      "foot": 7299,
      "nut": 7300,
      "san": 7301,
      "Ġx": 7302,
      "ĠTH": 7303,
      "ĠBour": 7304,
      "unting": 7305,
      "ĠGames": 7306,
      "ĠUK": 7307,
      "adder": 7308,
      "Ġattended": 7309,
      "Ġdrunk": 7310,
      "dey": 7311,
      "Ġpolitics": 7312,
      "Ġ90": 7313,
      "Ġapproach": 7314,
      "Ġneighb": 7315,
      "Ġrequired": 7316,
      "Ġaccepted": 7317,
      "ĠJewish": 7318,
      "Ġwave": 7319,
      "rier": 7320,
      "Ġashamed": 7321,
      "ĠBra": 7322,
      "elled": 7323,
      "umm": 7324,
      "ĠWITH": 7325,
      "Ġrang": 7326,
      "ĠFour": 7327,
      "ĠNik": 7328,
      "ĠJam": 7329,
      "intend": 7330,
      "shine": 7331,
      "Ġboxes": 7332,
      "Ġroads": 7333,
      "Ġdefeat": 7334,
      "Ġeffects": 7335,
      "Should": 7336,
      "hemat": 7337,
      "Ġtechn": 7338,
      "Ġsuffering": 7339,
      "ĠMickey": 7340,
      "Ġneighborhood": 7341,
      "Phil": 7342,
      "Ġarranged": 7343,
      "[\"": 7344,
      "Ġmuseum": 7345,
      "Ġfishing": 7346,
      "vering": 7347,
      "ĠCont": 7348,
      "ĠJos": 7349,
      "Ġimpl": 7350,
      "OULD": 7351,
      "Ġtribe": 7352,
      "Ġhorror": 7353,
      "Ġlanded": 7354,
      "Ġprovided": 7355,
      "keeper": 7356,
      "Ġimprove": 7357,
      "Baby": 7358,
      "Up": 7359,
      "bi": 7360,
      "nice": 7361,
      "nels": 7362,
      "thanks": 7363,
      "Ġgreet": 7364,
      "Ġstack": 7365,
      "Ġash": 7366,
      "Ġwhist": 7367,
      "Ġcomr": 7368,
      "ĠKNOW": 7369,
      "Ġ35": 7370,
      "ĠYoung": 7371,
      "Ġdollar": 7372,
      "Ġlately": 7373,
      "Ġservants": 7374,
      "ĠTrump": 7375,
      "Ġphotograph": 7376,
      "Ġrapidly": 7377,
      "Ġjournalist": 7378,
      "ĠVirginia": 7379,
      "Bar": 7380,
      "Back": 7381,
      "Fe": 7382,
      "Help": 7383,
      "Happy": 7384,
      "JO": 7385,
      "Ġze": 7386,
      "Ġcraw": 7387,
      "Ġhesit": 7388,
      "ĠBang": 7389,
      "umble": 7390,
      "ĠUN": 7391,
      "Ġdesire": 7392,
      "ĠArmen": 7393,
      "Ġtrem": 7394,
      "Ġwrites": 7395,
      "ĠBlue": 7396,
      "Ġsending": 7397,
      "Ġillustr": 7398,
      "ĠCommittee": 7399,
      "Ġpresidential": 7400,
      "Ġoperation": 7401,
      "Ġcritical": 7402,
      "ĠRoad": 7403,
      "Ġbalance": 7404,
      "Ġconduct": 7405,
      "sembly": 7406,
      "contin": 7407,
      "gues": 7408,
      "gency": 7409,
      "kind": 7410,
      "tw": 7411,
      "hara": 7412,
      "Ġbrill": 7413,
      "Ġfile": 7414,
      "Ġpant": 7415,
      "Ġlatter": 7416,
      "ript": 7417,
      "seven": 7418,
      "through": 7419,
      "ĠPac": 7420,
      "Ġsaving": 7421,
      "ques": 7422,
      "ender": 7423,
      "Ġsticking": 7424,
      "Donald": 7425,
      "Ġinstit": 7426,
      "kesp": 7427,
      "Ġlesson": 7428,
      "ĠOnly": 7429,
      "Ġsalami": 7430,
      "Ġhoped": 7431,
      "Ġrecognized": 7432,
      "Ġpersu": 7433,
      "Ġawarded": 7434,
      "Ġarchite": 7435,
      "ĠJacob": 7436,
      "24": 7437,
      "BAB": 7438,
      "Cap": 7439,
      "aylor": 7440,
      "Ġugly": 7441,
      "Ġgoals": 7442,
      "ĠHal": 7443,
      "ĠPL": 7444,
      "Ġgray": 7445,
      "Ġkeys": 7446,
      "Ġfleet": 7447,
      "Ġdamage": 7448,
      "ĠBelg": 7449,
      "Ġrevolution": 7450,
      "Ġvirus": 7451,
      "careful": 7452,
      "',": 7453,
      "__": 7454,
      "ji": 7455,
      "lav": 7456,
      "wen": 7457,
      "rep": 7458,
      "Ġox": 7459,
      "Ġbears": 7460,
      "also": 7461,
      "Ġstared": 7462,
      "gend": 7463,
      "olen": 7464,
      "ĠLy": 7465,
      "Ġ(,": 7466,
      "Ġgoodbye": 7467,
      "Ġrope": 7468,
      "Ġbrand": 7469,
      "Ġscissors": 7470,
      "Ġsecure": 7471,
      "Ġminor": 7472,
      "alend": 7473,
      "Ġaircraft": 7474,
      "Ġrecords": 7475,
      "REAM": 7476,
      "Ġdaily": 7477,
      "Ġforests": 7478,
      "Ġautom": 7479,
      "Ã³n": 7480,
      "Ġelder": 7481,
      "aunton": 7482,
      "Ġmicrophone": 7483,
      "JAK": 7484,
      "UE": 7485,
      "ias": 7486,
      "mpt": 7487,
      "Ġbark": 7488,
      "ĠBern": 7489,
      "ĠLater": 7490,
      "ints": 7491,
      "ĠProt": 7492,
      "Ġincred": 7493,
      "Ġeventually": 7494,
      "Ġestate": 7495,
      "Ġslipped": 7496,
      "Ġinvestigation": 7497,
      "ĠBundle": 7498,
      "Ġwondered": 7499,
      "ĠProfessor": 7500,
      "Jan": 7501,
      "gment": 7502,
      "hot": 7503,
      "Ġ/": 7504,
      "Ġtale": 7505,
      "Ġinha": 7506,
      "sell": 7507,
      "entine": 7508,
      "ĠScientists": 7509,
      "Ġjealous": 7510,
      "ĠNO": 7511,
      "ĠUr": 7512,
      "Ġprecious": 7513,
      "Ġcommittee": 7514,
      "Ġstops": 7515,
      "ĠPhilipp": 7516,
      "Ġthrowing": 7517,
      "ĠNorway": 7518,
      "Ġhorseshoe": 7519,
      "Ġmusical": 7520,
      "ĠAnton": 7521,
      "ĠScottish": 7522,
      "aisy": 7523,
      "Ġadvantage": 7524,
      "Ġconflict": 7525,
      "IM": 7526,
      "nam": 7527,
      "zing": 7528,
      "Ġtoast": 7529,
      "Ġhook": 7530,
      "Ġthrill": 7531,
      "ĠAng": 7532,
      "ĠHem": 7533,
      "ĠWars": 7534,
      "ĠGro": 7535,
      "Ġbron": 7536,
      "Ġappeal": 7537,
      "Ġapparently": 7538,
      "Ġkindly": 7539,
      "Ġsupply": 7540,
      "Ġbelief": 7541,
      "ouncill": 7542,
      "Ġsounded": 7543,
      "Ġadvance": 7544,
      "Ġengaged": 7545,
      "Ġmunicipal": 7546,
      "ĠJews": 7547,
      "Ġnetwork": 7548,
      "ĠHeaven": 7549,
      "ylvania": 7550,
      "?âĢĻ": 7551,
      "Ge": 7552,
      "Last": 7553,
      "Out": 7554,
      "hus": 7555,
      "pan": 7556,
      "shire": 7557,
      "iting": 7558,
      "Ġopt": 7559,
      "Ġodd": 7560,
      "Ġanger": 7561,
      "Ġmyst": 7562,
      "ĠDa": 7563,
      "pencer": 7564,
      "ĠÃĸ": 7565,
      "hands": 7566,
      "Ġearnest": 7567,
      "Ġadventure": 7568,
      "BE": 7569,
      "PS": 7570,
      "ghan": 7571,
      "lies": 7572,
      "mil": 7573,
      "said": 7574,
      "Ġgiraffe": 7575,
      "ĠAny": 7576,
      "ulate": 7577,
      "Ġseek": 7578,
      "ĠStaunton": 7579,
      "Ġcompleted": 7580,
      "Ġgreatly": 7581,
      "door": 7582,
      "ĠBruce": 7583,
      "Ġadmir": 7584,
      "Ġordinary": 7585,
      "Ġconnected": 7586,
      "Ġfocus": 7587,
      "AC": 7588,
      "Mary": 7589,
      "NON": 7590,
      "rate": 7591,
      "sometimes": 7592,
      "ĠIII": 7593,
      "Ġhunt": 7594,
      "riger": 7595,
      "ĠBad": 7596,
      "Ġseized": 7597,
      "ĠHamps": 7598,
      "oli": 7599,
      "ardy": 7600,
      "upid": 7601,
      "Ġunhappy": 7602,
      "Ġstandard": 7603,
      "Ġtrained": 7604,
      "coming": 7605,
      "Ġilleg": 7606,
      "Ġequal": 7607,
      "Ġgraduated": 7608,
      "ĠUkraine": 7609,
      "Ġescaped": 7610,
      "ĠHampshire": 7611,
      "Many": 7612,
      "Peter": 7613,
      "even": 7614,
      "Ġaye": 7615,
      "Ġfederal": 7616,
      "Ġpup": 7617,
      "Ġstones": 7618,
      "ĠFootball": 7619,
      "Ġtrunk": 7620,
      "ĠUE": 7621,
      "Ġunf": 7622,
      "Ġcauses": 7623,
      "Ġstronger": 7624,
      "GRM": 7625,
      "Ġrolling": 7626,
      "Ġprisoner": 7627,
      "III": 7628,
      "Ġtorn": 7629,
      "Ġsuffer": 7630,
      "Ġsatisfied": 7631,
      "ĠPrize": 7632,
      "gasps": 7633,
      "cohol": 7634,
      "ĠWrestling": 7635,
      "FE": 7636,
      "live": 7637,
      "Ġsought": 7638,
      "Ġowe": 7639,
      "ĠSil": 7640,
      "ĠSouthern": 7641,
      "amen": 7642,
      "ĠCub": 7643,
      "Ġhers": 7644,
      "Ġaltern": 7645,
      "next": 7646,
      "ollo": 7647,
      "ĠYet": 7648,
      "Ġflood": 7649,
      "Ġcontain": 7650,
      "Ġshower": 7651,
      "ensive": 7652,
      "Ġtremb": 7653,
      "Ġ1978": 7654,
      "ĠGrace": 7655,
      "Ġmurm": 7656,
      "hetti": 7657,
      "Ġwounded": 7658,
      "ĠPictures": 7659,
      "Richard": 7660,
      "Ġwoke": 7661,
      "Ġborrow": 7662,
      "ithe": 7663,
      "Ġdoctors": 7664,
      "child": 7665,
      "ĠPop": 7666,
      "Ġupper": 7667,
      "ĠWee": 7668,
      "Ġspr": 7669,
      "ĠOther": 7670,
      "Ġboyfriend": 7671,
      "Ġpassage": 7672,
      "Ġ1976": 7673,
      "Ġattacks": 7674,
      "Ġjumping": 7675,
      "Ġsystems": 7676,
      "Ġcosts": 7677,
      "Ġsecretary": 7678,
      "stitution": 7679,
      "ĠRegion": 7680,
      "ĠBertha": 7681,
      "GE": 7682,
      "Hurry": 7683,
      "Little": 7684,
      "Mic": 7685,
      "bus": 7686,
      "iot": 7687,
      "ties": 7688,
      "Ġwing": 7689,
      "Ġpowers": 7690,
      "Ġhills": 7691,
      "lets": 7692,
      "Ġnaught": 7693,
      "Ġnonsense": 7694,
      "iry": 7695,
      "ĠAccording": 7696,
      "Ġseated": 7697,
      "unh": 7698,
      "Ġsocks": 7699,
      "Ġspin": 7700,
      "IST": 7701,
      "Ġsched": 7702,
      "Ġunderneath": 7703,
      "izes": 7704,
      "Ġresolved": 7705,
      "Ġfollows": 7706,
      "Ġinstru": 7707,
      "Ġawfully": 7708,
      "Ġclosely": 7709,
      "ĠAtt": 7710,
      "Ġmagnetic": 7711,
      "Ġdemonstr": 7712,
      "Ġequip": 7713,
      "ĠAldworth": 7714,
      "Ġgarage": 7715,
      "Ġpizza": 7716,
      "ĠRevolution": 7717,
      "Life": 7718,
      "Person": 7719,
      "eight": 7720,
      "uits": 7721,
      "Ġcro": 7722,
      "Ġcash": 7723,
      "Ġpitch": 7724,
      "keys": 7725,
      "ĠĠĠ": 7726,
      "ĠLo": 7727,
      "venue": 7728,
      "Ġpeanut": 7729,
      "Ġarmed": 7730,
      "Ġworkers": 7731,
      "Ġprince": 7732,
      "Ġrecall": 7733,
      "Ġconfidence": 7734,
      "Ġshopping": 7735,
      "Ġencoura": 7736,
      "ĠMaggie": 7737,
      "ĠBattle": 7738,
      "ĠJennie": 7739,
      "Ġfarther": 7740,
      "Poor": 7741,
      "uing": 7742,
      "west": 7743,
      "Ġmercy": 7744,
      "Ġdiss": 7745,
      "Ġdull": 7746,
      "orney": 7747,
      "Ġthirst": 7748,
      "ĠCaterpillar": 7749,
      "eare": 7750,
      "throw": 7751,
      "ĠWoo": 7752,
      "aka": 7753,
      "Ġhanded": 7754,
      "Ġaccused": 7755,
      "ĠAlice": 7756,
      "ologist": 7757,
      "Ġ1930": 7758,
      "ĠJackson": 7759,
      "ĠOliver": 7760,
      "80": 7761,
      "Has": 7762,
      "Try": 7763,
      "Today": 7764,
      "gra": 7765,
      "Ġwow": 7766,
      "Ġdom": 7767,
      "Ġheight": 7768,
      "Ġwashing": 7769,
      "ĠAyl": 7770,
      "ĠRangers": 7771,
      "ĠGi": 7772,
      "Ġtricks": 7773,
      "ublic": 7774,
      "Ġeighteen": 7775,
      "ĠThree": 7776,
      "Ġanimated": 7777,
      "Ġsympt": 7778,
      "Ġ1983": 7779,
      "Ġeastern": 7780,
      "Ġ80": 7781,
      "Ġofficially": 7782,
      "Ġdivision": 7783,
      "Ġplatform": 7784,
      "quarters": 7785,
      "Ġexchange": 7786,
      "Sm": 7787,
      "Welcome": 7788,
      "nis": 7789,
      "sal": 7790,
      "Ġfenc": 7791,
      "ĠMusic": 7792,
      "ĠMiddle": 7793,
      "Ġsauce": 7794,
      "gee": 7795,
      "Ġarcher": 7796,
      "Ġgrade": 7797,
      "Ġdrum": 7798,
      "alem": 7799,
      "Ġregret": 7800,
      "ĠRepresent": 7801,
      "Ġfavourite": 7802,
      "Ġcurious": 7803,
      "rigerator": 7804,
      "Col": 7805,
      "Hmm": 7806,
      "Jack": 7807,
      "WHAT": 7808,
      "Ġcries": 7809,
      "Ġpushing": 7810,
      "stant": 7811,
      "Ġkings": 7812,
      "ĠPra": 7813,
      "Ġjury": 7814,
      "ieve": 7815,
      "quiet": 7816,
      "ardo": 7817,
      "Ġspy": 7818,
      "ĠUP": 7819,
      "ockey": 7820,
      "Ġrecent": 7821,
      "ï¿½ï¿½ï¿½": 7822,
      "Ġfarmer": 7823,
      "Ġache": 7824,
      "Ġchart": 7825,
      "Ġdecor": 7826,
      "Ġdata": 7827,
      "Ġfactory": 7828,
      "Ġ1969": 7829,
      "Ġexplan": 7830,
      "Ġdrops": 7831,
      "Ġdisappointed": 7832,
      "Ġdifficulty": 7833,
      "ynam": 7834,
      "ĠCentre": 7835,
      "Ġdelightful": 7836,
      "Next": 7837,
      "Ġbasketball": 7838,
      "ĠSteve": 7839,
      "pretty": 7840,
      "Ġmanagement": 7841,
      "Ġenvironmental": 7842,
      "Jo": 7843,
      "bie": 7844,
      "erk": 7845,
      "ĠTower": 7846,
      "ĠBon": 7847,
      "ĠBam": 7848,
      "ĠBud": 7849,
      "ĠPenn": 7850,
      "ĠKate": 7851,
      "Ġprem": 7852,
      "whose": 7853,
      "Ġinstance": 7854,
      "Ġtrains": 7855,
      "Ġdrinks": 7856,
      "Ġ1968": 7857,
      "Ġbloody": 7858,
      "Ġdragon": 7859,
      "Ġhousing": 7860,
      "Ġmultiple": 7861,
      "ĠFrancisco": 7862,
      "DO": 7863,
      "Te": 7864,
      "aurs": 7865,
      "pher": 7866,
      "ington": 7867,
      "Ġlung": 7868,
      "ompl": 7869,
      "ĠSant": 7870,
      "unn": 7871,
      "Ġjail": 7872,
      "ĠJerry": 7873,
      "Ġbrings": 7874,
      "ĠVen": 7875,
      "Ġpermission": 7876,
      "arson": 7877,
      "aughters": 7878,
      "Ġfunction": 7879,
      "EST": 7880,
      "Ġinstr": 7881,
      "Ġ1982": 7882,
      "Everybody": 7883,
      "Ã¡n": 7884,
      "Ġvictims": 7885,
      "ĠSweden": 7886,
      "ĠAylmer": 7887,
      "Watch": 7888,
      "bling": 7889,
      "pos": 7890,
      "sorry": 7891,
      "Ġsings": 7892,
      "orge": 7893,
      "eding": 7894,
      "atre": 7895,
      "ĠMouse": 7896,
      "ĠAB": 7897,
      "ĠBrother": 7898,
      "Ġcharged": 7899,
      "ĠClara": 7900,
      "Ġsquir": 7901,
      "Ġtypes": 7902,
      "ĠWales": 7903,
      "Ġslip": 7904,
      "Ġbillion": 7905,
      "ĠIslamic": 7906,
      "ĠUEFA": 7907,
      "TV": 7908,
      "dri": 7909,
      "hell": 7910,
      "Ġmood": 7911,
      "Ġgle": 7912,
      "ĠCH": 7913,
      "ifts": 7914,
      "ieutenant": 7915,
      "ĠLar": 7916,
      "Ġworn": 7917,
      "resp": 7918,
      "Ġgrateful": 7919,
      "Ġimage": 7920,
      "Ġpassion": 7921,
      "Ġhighly": 7922,
      "omma": 7923,
      "Ġsignal": 7924,
      "ĠFloss": 7925,
      "reading": 7926,
      "ĠCarle": 7927,
      "Ġmaintain": 7928,
      "Ġexperiment": 7929,
      "ĠNothing": 7930,
      "Ġprinci": 7931,
      "Ġscreaming": 7932,
      "Ġfrequ": 7933,
      "ĠBetty": 7934,
      "oscow": 7935,
      "Ġnominated": 7936,
      "des": 7937,
      "sw": 7938,
      "ammy": 7939,
      "ĠAk": 7940,
      "ĠAmy": 7941,
      "ĠPo": 7942,
      "ĠGot": 7943,
      "Ġunus": 7944,
      "Ġsmo": 7945,
      "Ġdese": 7946,
      "inned": 7947,
      "Ġreturns": 7948,
      "Ġ1971": 7949,
      "Ġchairs": 7950,
      "Ġamongst": 7951,
      "Ġspirits": 7952,
      "Ġexercise": 7953,
      "ĠStephen": 7954,
      "BI": 7955,
      "KID": 7956,
      "gins": 7957,
      "pur": 7958,
      "tes": 7959,
      "Ġeth": 7960,
      "Ġlaughter": 7961,
      "Ġforb": 7962,
      "opy": 7963,
      "Ġaltogether": 7964,
      "ĠLong": 7965,
      "ĠStone": 7966,
      "ups": 7967,
      "Ġrealized": 7968,
      "Ġhundreds": 7969,
      "Ġinstant": 7970,
      "Ġintended": 7971,
      "Whoa": 7972,
      "Ġprior": 7973,
      "ĠMayor": 7974,
      "Ġtempt": 7975,
      "Ġringing": 7976,
      "Ġteachers": 7977,
      "Ġfortun": 7978,
      "Ġphysical": 7979,
      "lemn": 7980,
      "Another": 7981,
      "vard": 7982,
      "esc": 7983,
      "Ġgal": 7984,
      "ĠSa": 7985,
      "Ġkangaroo": 7986,
      "ĠHor": 7987,
      "ĠPower": 7988,
      "Ġsav": 7989,
      "agon": 7990,
      "venge": 7991,
      "Ġfeast": 7992,
      "Ġcheap": 7993,
      "Ġcommitted": 7994,
      "Stay": 7995,
      "Although": 7996,
      "Ġprotection": 7997,
      "Ġdetails": 7998,
      "ĠTele": 7999,
      "Ġpattern": 8000,
      "Leave": 8001,
      "Ġagreement": 8002,
      "Ġboot": 8003,
      "Ġmac": 8004,
      "omi": 8005,
      "omer": 8006,
      "lying": 8007,
      "ĠGET": 8008,
      "Ġplot": 8009,
      "Ġsuffic": 8010,
      "Ġcolored": 8011,
      "ibly": 8012,
      "Ġconsult": 8013,
      "apping": 8014,
      "iversal": 8015,
      "Ġsigns": 8016,
      "Ġ1945": 8017,
      "Ġmillions": 8018,
      "Ġmistress": 8019,
      "ĠAfghan": 8020,
      "somebody": 8021,
      "ĠDanny": 8022,
      "Ġvolume": 8023,
      "Ġstruggle": 8024,
      "ufact": 8025,
      "Ġequipment": 8026,
      "Aha": 8027,
      "SC": 8028,
      "Shall": 8029,
      "bird": 8030,
      "fa": 8031,
      "paper": 8032,
      "sur": 8033,
      "win": 8034,
      "Ġwinner": 8035,
      "Ġwolf": 8036,
      "Ġben": 8037,
      "iser": 8038,
      "Ġdiamond": 8039,
      "ĠShan": 8040,
      "ĠBible": 8041,
      "Ġrude": 8042,
      "ĠFre": 8043,
      "Ġshy": 8044,
      "ĠNations": 8045,
      "ĠUnder": 8046,
      "Ġcarpet": 8047,
      "uced": 8048,
      "Ġhumans": 8049,
      "Ġevolution": 8050,
      "Ġcorpor": 8051,
      "shakes": 8052,
      "ĠGreece": 8053,
      "ĠBerlin": 8054,
      "ev": 8055,
      "rac": 8056,
      "rand": 8057,
      "Ġpond": 8058,
      "Ġhipp": 8059,
      "ĠTem": 8060,
      "ĠTime": 8061,
      "ĠHong": 8062,
      "ieur": 8063,
      "Ġdece": 8064,
      "ĠRail": 8065,
      "ĠNever": 8066,
      "ĠNana": 8067,
      "Ġvast": 8068,
      "obal": 8069,
      "Ġelev": 8070,
      "Ġminds": 8071,
      "Ġinterrup": 8072,
      "Ġfootballer": 8073,
      "yyy": 8074,
      "Ġauthorities": 8075,
      "Ġwhisper": 8076,
      "Ġlabel": 8077,
      "Ġincreased": 8078,
      "Ġsexual": 8079,
      "Ġscientific": 8080,
      "kespeare": 8081,
      "26": 8082,
      "belt": 8083,
      "ees": 8084,
      "gives": 8085,
      "Ġbore": 8086,
      "Ġdirt": 8087,
      "Ġgum": 8088,
      "Ġlem": 8089,
      "Ġlamb": 8090,
      "Ġwebs": 8091,
      "ĠCy": 8092,
      "Ġlif": 8093,
      "ĠFestival": 8094,
      "istor": 8095,
      "Ġvice": 8096,
      "ferences": 8097,
      "Ġcricket": 8098,
      "Ġearned": 8099,
      "ĠCarl": 8100,
      "Ġimportance": 8101,
      "ĠLeon": 8102,
      "Ġillness": 8103,
      "Ġcerem": 8104,
      "ĠPerhaps": 8105,
      "Ġdisappear": 8106,
      "ĠNorthern": 8107,
      "Ġbelonged": 8108,
      "Ġneighbour": 8109,
      "porary": 8110,
      "Ġconnection": 8111,
      "Ġeagerly": 8112,
      "Ġrescue": 8113,
      "Ġdivorce": 8114,
      "gro": 8115,
      "kitty": 8116,
      "Ġdu": 8117,
      "Ġdrain": 8118,
      "Ġdining": 8119,
      "Ġtom": 8120,
      "aro": 8121,
      "iro": 8122,
      "ĠSH": 8123,
      "ĠAra": 8124,
      "Ġancest": 8125,
      "ifer": 8126,
      "Ġjoint": 8127,
      "ppers": 8128,
      "ulated": 8129,
      "ĠJun": 8130,
      "them": 8131,
      "ĠVaud": 8132,
      "Ġflash": 8133,
      "actor": 8134,
      "onscious": 8135,
      "Ġactual": 8136,
      "Ġnights": 8137,
      "Ġsets": 8138,
      "Ġaccompl": 8139,
      "Ġfriendship": 8140,
      "Ġimpact": 8141,
      "Ġtechnology": 8142,
      "Ġresponsibility": 8143,
      "Ġscientists": 8144,
      "Ġstroke": 8145,
      "ĠCompany": 8146,
      "Four": 8147,
      "uous": 8148,
      "Ġtent": 8149,
      "ĠIm": 8150,
      "amas": 8151,
      "ĠMoscow": 8152,
      "ĠRimb": 8153,
      "ĠRIGHT": 8154,
      "ĠGriff": 8155,
      "Ġalcohol": 8156,
      "issy": 8157,
      "Ġletting": 8158,
      "Ġsche": 8159,
      "Ġ37": 8160,
      "Ġsixth": 8161,
      "ĠDev": 8162,
      "ĠJanet": 8163,
      "standing": 8164,
      "ĠReally": 8165,
      "ĠChampionships": 8166,
      "Ġbenefit": 8167,
      "Ġcabin": 8168,
      "Ġfolk": 8169,
      "ĠGolden": 8170,
      "Ġoccupied": 8171,
      "Ġbrilliant": 8172,
      "According": 8173,
      "isl": 8174,
      "enes": 8175,
      "Ġpoll": 8176,
      "atal": 8177,
      "rily": 8178,
      "ĠPier": 8179,
      "Ġsoap": 8180,
      "ĠFree": 8181,
      "ĠEastern": 8182,
      "icken": 8183,
      "agger": 8184,
      "aghetti": 8185,
      "ĠKong": 8186,
      "Ġunknown": 8187,
      "ĠInter": 8188,
      "Ġdriven": 8189,
      "ĠAsia": 8190,
      "Ġimpati": 8191
    },
    "merges": [
      [
        "Ġ",
        "t"
      ],
      [
        "h",
        "e"
      ],
      [
        "Ġ",
        "a"
      ],
      [
        "i",
        "n"
      ],
      [
        "Ġ",
        "w"
      ],
      [
        "Ġt",
        "he"
      ],
      [
        "o",
        "u"
      ],
      [
        "r",
        "e"
      ],
      [
        "Ġ",
        "s"
      ],
      [
        "o",
        "n"
      ],
      [
        "h",
        "a"
      ],
      [
        "e",
        "r"
      ],
      [
        "n",
        "d"
      ],
      [
        "Ġ",
        "b"
      ],
      [
        "i",
        "t"
      ],
      [
        "i",
        "s"
      ],
      [
        "Ġ",
        "m"
      ],
      [
        "Ġ",
        "c"
      ],
      [
        "Ġ",
        "o"
      ],
      [
        "Ġ",
        "d"
      ],
      [
        "Ġ",
        "f"
      ],
      [
        "in",
        "g"
      ],
      [
        "Ġt",
        "o"
      ],
      [
        "l",
        "l"
      ],
      [
        "a",
        "n"
      ],
      [
        "o",
        "r"
      ],
      [
        "e",
        "d"
      ],
      [
        "Ġ",
        "y"
      ],
      [
        "e",
        "s"
      ],
      [
        "e",
        "n"
      ],
      [
        "Ġ",
        "p"
      ],
      [
        "ha",
        "t"
      ],
      [
        "H",
        "I"
      ],
      [
        "Ġy",
        "ou"
      ],
      [
        "a",
        "r"
      ],
      [
        "Ġ",
        "g"
      ],
      [
        "C",
        "HI"
      ],
      [
        "Ġ",
        "l"
      ],
      [
        "Ġa",
        "nd"
      ],
      [
        "Ġo",
        "f"
      ],
      [
        "a",
        "s"
      ],
      [
        "O",
        "T"
      ],
      [
        "M",
        "OT"
      ],
      [
        "Ġ",
        "in"
      ],
      [
        "a",
        "t"
      ],
      [
        "o",
        "m"
      ],
      [
        "n",
        "o"
      ],
      [
        "Ġ",
        "I"
      ],
      [
        "Ġ",
        "he"
      ],
      [
        "Ġ",
        "h"
      ],
      [
        "l",
        "e"
      ],
      [
        "'",
        "s"
      ],
      [
        "Ġ",
        "ha"
      ],
      [
        "a",
        "y"
      ],
      [
        "i",
        "c"
      ],
      [
        "e",
        "t"
      ],
      [
        "v",
        "e"
      ],
      [
        "Ġ",
        "it"
      ],
      [
        "Ġt",
        "h"
      ],
      [
        "Ġ",
        "on"
      ],
      [
        "u",
        "s"
      ],
      [
        "i",
        "d"
      ],
      [
        "g",
        "h"
      ],
      [
        "Ġt",
        "hat"
      ],
      [
        "Ġb",
        "e"
      ],
      [
        "a",
        "l"
      ],
      [
        "Ġw",
        "as"
      ],
      [
        "l",
        "d"
      ],
      [
        "Ġ",
        "e"
      ],
      [
        "Ġ",
        "is"
      ],
      [
        "u",
        "t"
      ],
      [
        "o",
        "w"
      ],
      [
        "o",
        "o"
      ],
      [
        "Ġ",
        "no"
      ],
      [
        ".",
        "."
      ],
      [
        "Ġ",
        "="
      ],
      [
        "Ġw",
        "e"
      ],
      [
        "i",
        "m"
      ],
      [
        "v",
        "er"
      ],
      [
        "a",
        "c"
      ],
      [
        "k",
        "e"
      ],
      [
        "a",
        "d"
      ],
      [
        "Ġ",
        "n"
      ],
      [
        "'",
        "t"
      ],
      [
        "o",
        "t"
      ],
      [
        "r",
        "i"
      ],
      [
        "Ġ",
        "re"
      ],
      [
        "s",
        "e"
      ],
      [
        "en",
        "t"
      ],
      [
        "Ġf",
        "or"
      ],
      [
        "i",
        "r"
      ],
      [
        "gh",
        "t"
      ],
      [
        "Ġ",
        "S"
      ],
      [
        "a",
        "m"
      ],
      [
        "i",
        "on"
      ],
      [
        "Ġs",
        "t"
      ],
      [
        "l",
        "y"
      ],
      [
        "Ġ",
        "M"
      ],
      [
        "s",
        "t"
      ],
      [
        "Ġd",
        "o"
      ],
      [
        "Ġ",
        "u"
      ],
      [
        "Ġ",
        "T"
      ],
      [
        "ou",
        "t"
      ],
      [
        "Ġ",
        "k"
      ],
      [
        "r",
        "o"
      ],
      [
        "Ġm",
        "e"
      ],
      [
        "it",
        "h"
      ],
      [
        "he",
        "r"
      ],
      [
        "Ġ",
        "A"
      ],
      [
        "Ġ",
        "C"
      ],
      [
        "Ġw",
        "ith"
      ],
      [
        "a",
        "ll"
      ],
      [
        "e",
        "a"
      ],
      [
        "om",
        "e"
      ],
      [
        "u",
        "r"
      ],
      [
        "a",
        "nd"
      ],
      [
        "c",
        "h"
      ],
      [
        "Ġa",
        "n"
      ],
      [
        "Ġl",
        "i"
      ],
      [
        "Ġa",
        "t"
      ],
      [
        "t",
        "er"
      ],
      [
        "Ġa",
        "s"
      ],
      [
        "Ġw",
        "h"
      ],
      [
        "i",
        "ll"
      ],
      [
        "Ġ",
        "B"
      ],
      [
        "Ġs",
        "e"
      ],
      [
        "ou",
        "ld"
      ],
      [
        "Ġg",
        "o"
      ],
      [
        "Ġno",
        "t"
      ],
      [
        "c",
        "e"
      ],
      [
        "Ġ",
        "H"
      ],
      [
        "Ġha",
        "ve"
      ],
      [
        "A",
        "T"
      ],
      [
        "Ġth",
        "is"
      ],
      [
        "i",
        "l"
      ],
      [
        "no",
        "w"
      ],
      [
        "x",
        "x"
      ],
      [
        "F",
        "AT"
      ],
      [
        "e",
        "ll"
      ],
      [
        "us",
        "t"
      ],
      [
        "Ġhe",
        "r"
      ],
      [
        "..",
        "."
      ],
      [
        "i",
        "f"
      ],
      [
        "u",
        "n"
      ],
      [
        "an",
        "t"
      ],
      [
        "c",
        "t"
      ],
      [
        "Ġh",
        "is"
      ],
      [
        "Ġa",
        "re"
      ],
      [
        "Ġk",
        "now"
      ],
      [
        "Ġon",
        "e"
      ],
      [
        "r",
        "a"
      ],
      [
        "t",
        "h"
      ],
      [
        "o",
        "p"
      ],
      [
        "Ġ",
        "P"
      ],
      [
        "o",
        "re"
      ],
      [
        "Ġthe",
        "y"
      ],
      [
        "he",
        "re"
      ],
      [
        "Ġw",
        "hat"
      ],
      [
        "Ġu",
        "p"
      ],
      [
        "Ġs",
        "he"
      ],
      [
        "Ġs",
        "a"
      ],
      [
        "Ġn",
        "e"
      ],
      [
        "Ġ",
        "1"
      ],
      [
        "Ġ",
        "\""
      ],
      [
        "oo",
        "k"
      ],
      [
        "Ġm",
        "y"
      ],
      [
        "u",
        "m"
      ],
      [
        "Ġs",
        "o"
      ],
      [
        "Ġa",
        "ll"
      ],
      [
        "r",
        "om"
      ],
      [
        "Ġ",
        "j"
      ],
      [
        "Ġha",
        "d"
      ],
      [
        "Ġc",
        "an"
      ],
      [
        "Ġd",
        "on"
      ],
      [
        "ou",
        "r"
      ],
      [
        "he",
        "n"
      ],
      [
        "g",
        "e"
      ],
      [
        "p",
        "p"
      ],
      [
        "i",
        "e"
      ],
      [
        "â",
        "Ģ"
      ],
      [
        "Ġ",
        "W"
      ],
      [
        "ea",
        "h"
      ],
      [
        "Ġ",
        "D"
      ],
      [
        "Ġthe",
        "re"
      ],
      [
        "Ġd",
        "e"
      ],
      [
        "Ġyou",
        "r"
      ],
      [
        "Ġ",
        "R"
      ],
      [
        "r",
        "y"
      ],
      [
        "a",
        "in"
      ],
      [
        "u",
        "l"
      ],
      [
        "Ġ",
        "r"
      ],
      [
        "Ġ",
        "Ġ"
      ],
      [
        "o",
        "l"
      ],
      [
        "ac",
        "k"
      ],
      [
        "oo",
        "d"
      ],
      [
        "Ġa",
        "b"
      ],
      [
        "Ġli",
        "ke"
      ],
      [
        "Ġ",
        "G"
      ],
      [
        "Ġ",
        "out"
      ],
      [
        "i",
        "ght"
      ],
      [
        "Ġh",
        "im"
      ],
      [
        "Ġ",
        "F"
      ],
      [
        "a",
        "ke"
      ],
      [
        "Ġb",
        "ut"
      ],
      [
        "ar",
        "t"
      ],
      [
        "Ġf",
        "rom"
      ],
      [
        "re",
        "d"
      ],
      [
        "Ġa",
        "l"
      ],
      [
        "e",
        "l"
      ],
      [
        "Ġs",
        "h"
      ],
      [
        "Ġd",
        "id"
      ],
      [
        "at",
        "ion"
      ],
      [
        "Ġp",
        "l"
      ],
      [
        "a",
        "b"
      ],
      [
        "Ġ",
        "2"
      ],
      [
        "ha",
        "n"
      ],
      [
        "ver",
        "y"
      ],
      [
        "on",
        "e"
      ],
      [
        "i",
        "g"
      ],
      [
        "'",
        "re"
      ],
      [
        "Y",
        "ou"
      ],
      [
        "T",
        "he"
      ],
      [
        "es",
        "t"
      ],
      [
        "'",
        "m"
      ],
      [
        "w",
        "hat"
      ],
      [
        "o",
        "s"
      ],
      [
        "Ġ",
        "N"
      ],
      [
        "er",
        "s"
      ],
      [
        "es",
        "s"
      ],
      [
        "e",
        "m"
      ],
      [
        "ri",
        "ght"
      ],
      [
        "in",
        "k"
      ],
      [
        "h",
        "i"
      ],
      [
        "is",
        "t"
      ],
      [
        "Ġwe",
        "re"
      ],
      [
        "Ġg",
        "et"
      ],
      [
        "Ġ",
        "L"
      ],
      [
        "Ġ",
        "E"
      ],
      [
        "ou",
        "nd"
      ],
      [
        "Ġ",
        "J"
      ],
      [
        "it",
        "t"
      ],
      [
        "am",
        "e"
      ],
      [
        "Ġb",
        "y"
      ],
      [
        "on",
        "g"
      ],
      [
        "Ġs",
        "u"
      ],
      [
        "Ġsa",
        "id"
      ],
      [
        "c",
        "k"
      ],
      [
        "in",
        "d"
      ],
      [
        "n",
        "a"
      ],
      [
        "t",
        "her"
      ],
      [
        "q",
        "u"
      ],
      [
        "Ġo",
        "r"
      ],
      [
        "Ġw",
        "or"
      ],
      [
        "re",
        "s"
      ],
      [
        "n",
        "t"
      ],
      [
        "Ġthe",
        "m"
      ],
      [
        "ĠT",
        "he"
      ],
      [
        "as",
        "t"
      ],
      [
        "Ġab",
        "out"
      ],
      [
        "i",
        "ve"
      ],
      [
        "Ġc",
        "om"
      ],
      [
        "Ġs",
        "ome"
      ],
      [
        "b",
        "er"
      ],
      [
        "y",
        "ou"
      ],
      [
        "ar",
        "d"
      ],
      [
        "o",
        "h"
      ],
      [
        "us",
        "e"
      ],
      [
        "Ġs",
        "p"
      ],
      [
        "xx",
        "x"
      ],
      [
        "e",
        "p"
      ],
      [
        "a",
        "k"
      ],
      [
        "ow",
        "n"
      ],
      [
        "Ġ",
        "v"
      ],
      [
        "Ġw",
        "ant"
      ],
      [
        "Ġwh",
        "o"
      ],
      [
        "all",
        "y"
      ],
      [
        "Ġc",
        "on"
      ],
      [
        "a",
        "u"
      ],
      [
        "at",
        "e"
      ],
      [
        "Ġth",
        "ink"
      ],
      [
        "ic",
        "e"
      ],
      [
        "Ġj",
        "ust"
      ],
      [
        "Ġw",
        "ould"
      ],
      [
        "Ġhe",
        "re"
      ],
      [
        "f",
        "e"
      ],
      [
        "y",
        "eah"
      ],
      [
        "Ġ",
        "O"
      ],
      [
        "k",
        "ay"
      ],
      [
        "'",
        "ll"
      ],
      [
        "e",
        "ar"
      ],
      [
        "Ġse",
        "e"
      ],
      [
        "Ġan",
        "y"
      ],
      [
        "o",
        "d"
      ],
      [
        "ic",
        "k"
      ],
      [
        "im",
        "e"
      ],
      [
        "ou",
        "gh"
      ],
      [
        "Ġm",
        "an"
      ],
      [
        "a",
        "p"
      ],
      [
        "Ġt",
        "w"
      ],
      [
        "Ġ",
        "if"
      ],
      [
        "a",
        "g"
      ],
      [
        "Ġe",
        "x"
      ],
      [
        "Ġw",
        "hen"
      ],
      [
        "Ġ2",
        "0"
      ],
      [
        "itt",
        "le"
      ],
      [
        "Ġ",
        "("
      ],
      [
        "ic",
        "h"
      ],
      [
        "Ġg",
        "ot"
      ],
      [
        "h",
        "ing"
      ],
      [
        "Ġ1",
        "9"
      ],
      [
        "or",
        "t"
      ],
      [
        "Ġ",
        "right"
      ],
      [
        "Ġs",
        "ay"
      ],
      [
        "]",
        "."
      ],
      [
        "Ġl",
        "ook"
      ],
      [
        "Ġw",
        "ill"
      ],
      [
        "Ġ",
        "us"
      ],
      [
        "v",
        "en"
      ],
      [
        "I",
        "t"
      ],
      [
        "in",
        "e"
      ],
      [
        "Ġl",
        "ittle"
      ],
      [
        ".",
        "\""
      ],
      [
        "-",
        "-"
      ],
      [
        "ĠH",
        "e"
      ],
      [
        "Ġ",
        "["
      ],
      [
        "id",
        "e"
      ],
      [
        "I",
        "N"
      ],
      [
        "ou",
        "s"
      ],
      [
        "c",
        "a"
      ],
      [
        "t",
        "o"
      ],
      [
        "A",
        "R"
      ],
      [
        "o",
        "st"
      ],
      [
        "Ġ",
        "K"
      ],
      [
        "Ġa",
        "g"
      ],
      [
        "Ġno",
        "w"
      ],
      [
        "Ġp",
        "ro"
      ],
      [
        "Ġto",
        "o"
      ],
      [
        "in",
        "t"
      ],
      [
        "i",
        "es"
      ],
      [
        "it",
        "y"
      ],
      [
        "w",
        "ay"
      ],
      [
        "Ġt",
        "ime"
      ],
      [
        "Ġbe",
        "en"
      ],
      [
        "Ġp",
        "e"
      ],
      [
        "it",
        "e"
      ],
      [
        "Ġa",
        "r"
      ],
      [
        "ĠI",
        "t"
      ],
      [
        "Ġb",
        "ack"
      ],
      [
        "Ġm",
        "ore"
      ],
      [
        "Ġc",
        "ould"
      ],
      [
        "n",
        "e"
      ],
      [
        "Ġthe",
        "n"
      ],
      [
        "l",
        "f"
      ],
      [
        "Ġc",
        "l"
      ],
      [
        "Ġha",
        "s"
      ],
      [
        "Ġ",
        "xxx"
      ],
      [
        "Ġgo",
        "ing"
      ],
      [
        "Ġg",
        "ood"
      ],
      [
        "Ġd",
        "own"
      ],
      [
        "re",
        "e"
      ],
      [
        "ac",
        "e"
      ],
      [
        "u",
        "h"
      ],
      [
        "o",
        "se"
      ],
      [
        "Ġtw",
        "o"
      ],
      [
        "t",
        "he"
      ],
      [
        "Ġthe",
        "ir"
      ],
      [
        "Ġ",
        "very"
      ],
      [
        "a",
        "re"
      ],
      [
        "M",
        "AR"
      ],
      [
        "Ġo",
        "ver"
      ],
      [
        "H",
        "e"
      ],
      [
        "is",
        "h"
      ],
      [
        "re",
        "at"
      ],
      [
        "Ġ",
        "ro"
      ],
      [
        "Ġwh",
        "ich"
      ],
      [
        "o",
        "ve"
      ],
      [
        "A",
        "nd"
      ],
      [
        "Ġof",
        "f"
      ],
      [
        "i",
        "an"
      ],
      [
        "ca",
        "use"
      ],
      [
        "e",
        "nd"
      ],
      [
        "Ġo",
        "ther"
      ],
      [
        "al",
        "k"
      ],
      [
        "ĠĠ",
        "ĠĠ"
      ],
      [
        "ot",
        "her"
      ],
      [
        "t",
        "hat"
      ],
      [
        "h",
        "y"
      ],
      [
        "Ġp",
        "ut"
      ],
      [
        "u",
        "re"
      ],
      [
        "Ġt",
        "r"
      ],
      [
        "Ġa",
        "f"
      ],
      [
        "op",
        "le"
      ],
      [
        "Ġ",
        "U"
      ],
      [
        "Ġth",
        "ing"
      ],
      [
        "u",
        "d"
      ],
      [
        "o",
        "y"
      ],
      [
        "w",
        "e"
      ],
      [
        "as",
        "e"
      ],
      [
        "s",
        "o"
      ],
      [
        "Ġb",
        "l"
      ],
      [
        "f",
        "t"
      ],
      [
        "au",
        "gh"
      ],
      [
        "on",
        "d"
      ],
      [
        "Ġ",
        "qu"
      ],
      [
        ",",
        "\""
      ],
      [
        "ar",
        "k"
      ],
      [
        "W",
        "hat"
      ],
      [
        "m",
        "ent"
      ],
      [
        "om",
        "et"
      ],
      [
        "t",
        "y"
      ],
      [
        "i",
        "a"
      ],
      [
        "'",
        "ve"
      ],
      [
        "he",
        "d"
      ],
      [
        "or",
        "n"
      ],
      [
        "Ġl",
        "e"
      ],
      [
        "Ġf",
        "e"
      ],
      [
        "m",
        "y"
      ],
      [
        "Ġh",
        "ow"
      ],
      [
        "p",
        "e"
      ],
      [
        "Ġpe",
        "ople"
      ],
      [
        "IN",
        "V"
      ],
      [
        "y",
        "es"
      ],
      [
        "on",
        "na"
      ],
      [
        "ir",
        "st"
      ],
      [
        "ou",
        "ght"
      ],
      [
        "Ġb",
        "r"
      ],
      [
        "h",
        "o"
      ],
      [
        "u",
        "e"
      ],
      [
        "ur",
        "n"
      ],
      [
        "ad",
        "e"
      ],
      [
        "Ġin",
        "to"
      ],
      [
        "ar",
        "y"
      ],
      [
        "v",
        "ed"
      ],
      [
        "Ġc",
        "ome"
      ],
      [
        "Ġg",
        "r"
      ],
      [
        "at",
        "er"
      ],
      [
        "Ġpl",
        "ay"
      ],
      [
        "Ġm",
        "ake"
      ],
      [
        "Ġg",
        "onna"
      ],
      [
        "Ġc",
        "all"
      ],
      [
        "b",
        "le"
      ],
      [
        "ĠS",
        "t"
      ],
      [
        "a",
        "ge"
      ],
      [
        "Ġ",
        "er"
      ],
      [
        "Ġw",
        "ay"
      ],
      [
        "as",
        "s"
      ],
      [
        "W",
        "e"
      ],
      [
        "Ġd",
        "ay"
      ],
      [
        "Ġt",
        "han"
      ],
      [
        "is",
        "s"
      ],
      [
        "Ġwor",
        "k"
      ],
      [
        "or",
        "d"
      ],
      [
        "v",
        "ing"
      ],
      [
        "c",
        "i"
      ],
      [
        "Ġag",
        "ain"
      ],
      [
        "Ġs",
        "omet"
      ],
      [
        "p",
        "l"
      ],
      [
        "b",
        "e"
      ],
      [
        "ou",
        "nt"
      ],
      [
        "Ġt",
        "ell"
      ],
      [
        "Ġme",
        "an"
      ],
      [
        "R",
        "O"
      ],
      [
        "Ġ",
        "'"
      ],
      [
        "l",
        "augh"
      ],
      [
        "o",
        "ll"
      ],
      [
        "o",
        "kay"
      ],
      [
        "Ġf",
        "irst"
      ],
      [
        "f",
        "f"
      ],
      [
        "Ġ",
        "en"
      ],
      [
        "I",
        "S"
      ],
      [
        "Ġw",
        "here"
      ],
      [
        "r",
        "an"
      ],
      [
        "n",
        "g"
      ],
      [
        "i",
        "re"
      ],
      [
        "se",
        "lf"
      ],
      [
        "m",
        "er"
      ],
      [
        "Ġa",
        "m"
      ],
      [
        "w",
        "n"
      ],
      [
        "Ġaf",
        "ter"
      ],
      [
        "Ġt",
        "ake"
      ],
      [
        "v",
        "es"
      ],
      [
        "at",
        "her"
      ],
      [
        "Ġw",
        "r"
      ],
      [
        "Ġth",
        "r"
      ],
      [
        "u",
        "p"
      ],
      [
        "h",
        "is"
      ],
      [
        "N",
        "o"
      ],
      [
        "Ġp",
        "art"
      ],
      [
        "Ġb",
        "et"
      ],
      [
        "Ġl",
        "et"
      ],
      [
        "Ġ",
        "V"
      ],
      [
        "Ġdo",
        "es"
      ],
      [
        "ac",
        "h"
      ],
      [
        "u",
        "ch"
      ],
      [
        "O",
        "h"
      ],
      [
        "Ġ",
        "Y"
      ],
      [
        "Ġy",
        "ear"
      ],
      [
        "oo",
        "l"
      ],
      [
        "Ġg",
        "u"
      ],
      [
        "âĢ",
        "Ļ"
      ],
      [
        "Ġne",
        "ed"
      ],
      [
        "Ġd",
        "is"
      ],
      [
        "Ġp",
        "r"
      ],
      [
        "Ġha",
        "pp"
      ],
      [
        "f",
        "ore"
      ],
      [
        "Ġdid",
        "n"
      ],
      [
        "Ġe",
        "very"
      ],
      [
        "th",
        "ing"
      ],
      [
        "ou",
        "se"
      ],
      [
        "re",
        "n"
      ],
      [
        "p",
        "s"
      ],
      [
        "Ġu",
        "n"
      ],
      [
        "p",
        "er"
      ],
      [
        "l",
        "es"
      ],
      [
        "Ġon",
        "ly"
      ],
      [
        "u",
        "b"
      ],
      [
        "S",
        "IS"
      ],
      [
        "B",
        "ut"
      ],
      [
        "laugh",
        "s"
      ],
      [
        "Ġsh",
        "ould"
      ],
      [
        "p",
        "t"
      ],
      [
        "Ġ",
        "our"
      ],
      [
        "d",
        "ay"
      ],
      [
        "nd",
        "er"
      ],
      [
        "Ġm",
        "ade"
      ],
      [
        "Ġsomet",
        "hing"
      ],
      [
        "h",
        "m"
      ],
      [
        "u",
        "ll"
      ],
      [
        "Ġf",
        "l"
      ],
      [
        "ac",
        "t"
      ],
      [
        "ad",
        "y"
      ],
      [
        "ĠS",
        "he"
      ],
      [
        "ab",
        "le"
      ],
      [
        "res",
        "s"
      ],
      [
        "âĢ",
        "ľ"
      ],
      [
        "Ġm",
        "uch"
      ],
      [
        "T",
        "hat"
      ],
      [
        "t",
        "e"
      ],
      [
        "Ġc",
        "ha"
      ],
      [
        "z",
        "z"
      ],
      [
        "o",
        "g"
      ],
      [
        "os",
        "s"
      ],
      [
        "Ġp",
        "re"
      ],
      [
        "B",
        "RO"
      ],
      [
        "Ġt",
        "e"
      ],
      [
        "m",
        "an"
      ],
      [
        "Ġt",
        "alk"
      ],
      [
        "Ġl",
        "ong"
      ],
      [
        "or",
        "y"
      ],
      [
        "Ġc",
        "ar"
      ],
      [
        "Ġ20",
        "1"
      ],
      [
        "t",
        "ing"
      ],
      [
        "Ġwe",
        "ll"
      ],
      [
        "Ġc",
        "o"
      ],
      [
        "ir",
        "l"
      ],
      [
        "ion",
        "s"
      ],
      [
        "i",
        "ed"
      ],
      [
        "Ġha",
        "nd"
      ],
      [
        "at",
        "ed"
      ],
      [
        "Ġc",
        "hi"
      ],
      [
        "ic",
        "t"
      ],
      [
        "an",
        "g"
      ],
      [
        "Ġthe",
        "se"
      ],
      [
        "a",
        "v"
      ],
      [
        "Ġw",
        "ent"
      ],
      [
        "ad",
        "d"
      ],
      [
        "W",
        "ell"
      ],
      [
        "i",
        "x"
      ],
      [
        "Ġre",
        "ally"
      ],
      [
        "Ġthr",
        "ough"
      ],
      [
        "¿",
        "½"
      ],
      [
        "ï",
        "¿½"
      ],
      [
        "g",
        "et"
      ],
      [
        "c",
        "c"
      ],
      [
        "Y",
        "eah"
      ],
      [
        "w",
        "here"
      ],
      [
        "Ġ",
        "im"
      ],
      [
        "Ġcom",
        "p"
      ],
      [
        "i",
        "le"
      ],
      [
        "u",
        "ck"
      ],
      [
        "Ġbe",
        "fore"
      ],
      [
        "Ġa",
        "d"
      ],
      [
        "'",
        "d"
      ],
      [
        "Ġp",
        "o"
      ],
      [
        "Ġchi",
        "ld"
      ],
      [
        "ĠM",
        "r"
      ],
      [
        "Ġbe",
        "cause"
      ],
      [
        "Ġne",
        "ver"
      ],
      [
        "Ġo",
        "ld"
      ],
      [
        "Ġb",
        "ig"
      ],
      [
        "od",
        "y"
      ],
      [
        "is",
        "e"
      ],
      [
        "Ġs",
        "ha"
      ],
      [
        "an",
        "na"
      ],
      [
        "Ġth",
        "ree"
      ],
      [
        "u",
        "g"
      ],
      [
        "Ġc",
        "ame"
      ],
      [
        "Ġm",
        "o"
      ],
      [
        "Ġb",
        "oy"
      ],
      [
        "Ġs",
        "c"
      ],
      [
        "Ġre",
        "m"
      ],
      [
        "l",
        "i"
      ],
      [
        "Ġst",
        "ill"
      ],
      [
        "?",
        "\""
      ],
      [
        "Ġe",
        "at"
      ],
      [
        "Ġal",
        "so"
      ],
      [
        "ĠI",
        "n"
      ],
      [
        "Ġu",
        "nder"
      ],
      [
        "Ġg",
        "reat"
      ],
      [
        "Ġ",
        "ke"
      ],
      [
        "Ġas",
        "k"
      ],
      [
        "f",
        "ul"
      ],
      [
        "Ġs",
        "m"
      ],
      [
        "Ġa",
        "way"
      ],
      [
        "Ġg",
        "irl"
      ],
      [
        "c",
        "l"
      ],
      [
        "S",
        "o"
      ],
      [
        "Ġhe",
        "l"
      ],
      [
        "en",
        "ce"
      ],
      [
        "at",
        "ch"
      ],
      [
        "Ġth",
        "ought"
      ],
      [
        "ĠU",
        "n"
      ],
      [
        "Ġe",
        "ven"
      ],
      [
        "k",
        "s"
      ],
      [
        "on",
        "s"
      ],
      [
        "d",
        "o"
      ],
      [
        "ri",
        "ed"
      ],
      [
        "Ġa",
        "ct"
      ],
      [
        "w",
        "ard"
      ],
      [
        "Ġa",
        "pp"
      ],
      [
        "i",
        "p"
      ],
      [
        "i",
        "z"
      ],
[...]
